10111110101000010001010010110011
10111101101100101111000100100111
10111110111011111111110100100100
10111110111100001110010011110010
00111111000001011101000010000110
10111111000100010101011001111000
00111111000001000100110111110000
10111110110000010011000101000001
00111110101101111001000011011001
00111110011011110001011010100011
10111110010111001000010101101011
10111110110110101100101100110000
10111110101000000111001000001110
00111101000100100011111110110111
00111111011101100100111101110011
10111110101011011111001100100101
10111101000010100000100100101011
10111110110110010000110111101101
10111101111100111110111110010001
00111110010000111101010000001011
10111100100111110101010010000011
00111111011100000101011110000110
00111111001001010101000010011001
10111101000000110110001110111111
10111110000111101100001111000111
00111101001100000000100001101111
10111111010111001001111011011101
10111110000110110111010001110000
00111111000011111011111100111011
00111110000001110101111010110101
10111111000000001111110100110000
00111110110011011100011111110101
00111110101001000010001111100101
10111111010101101101000111101001
00111110110000100110100101100001
00111110011011101110110100000000
10111110101111101110011011101001
10111110110011101101110010000000
00111110100111111000101000100101
10111101101010111001011110011000
00111111010000110000010000110001
00111110110011111111111100101000
00111110111011100011010011111101
10111110110010101010100001010101
00111110100110000101010111111001
00111101101011101110000110111001
00111110011101001011110011101100
00111110111110010001011101010101
00111110001101110110011011011001
00111111001011010001000111001101
00111110101000011011100100101110
10111110010010111111100000001101
00111110011001010001100001101010
00111111000000001110100110101011
10111111001010101011010001111010
00111100101111011111010001100110
00111110001001100000100000011001
00111110111010001001011100001001
00111111000011111000110001111100
10111110010000000111101100100111
00111110100111111010000000000100
10111111000010001110011111011011
10111110111101100011110011101101
10111110101001001011111111000010
10111111000001100100001000110000
00111101001010011111110011000111
00111101010100100100000100111111
00111110000100110100101101001011
10111111001010010110010110010011
00111111000000000011100111101010
00111110111101110010010000001101
10111111000000100110011011011111
00111110001110101010111100101010
10111110000100011001110101110001
00111111000001010100101101001010
10111111000111000111011110111000
10111110101011010011000011000001
00111110111010100001100001101001
00111110100001011111111000101000
00111110111000000010101001001000
10111111100001011101011011100110
10111101101110100111110111001110
00111110100011011010110010011000
00111111001110011110100001110110
10111110001001111011101111010000
00111101011011111000001010001110
10111110000111010101001100011000
10111110011001011001101101111001
10111110101111110110111000001000
00111100111000000010001001101110
10111110010111101101000101100010
10111110111101000100010111110100
00111111010111111100110000010100
00111110101011010010101010111011
00111110011001001111111111111110
00111101010111010110110000110100
00111110111110110010000110111100
00111110101011011111111000010001
10111110010100110010111111110010
10111111001101101010110100000110
00111110100001011011100001100100
10111110111110000011100000101011
00111110100111111101000101010100
00111110101110001001011000000000
10111111001011000101100000110001
10111110111101000110110110010000
10111110100101111011000000010100
00111110000111110010001110100011
10111110100111110110100111010101
10111110110010010000000101011001
10111110000011011001010010001111
00111111000000011100111100000001
00111110110000110100000111001001
10111110111011110011101101111111
10111110110101100001000100101010
00111111001010010111010000111001
10111110111000100001011000111011
10111110010010011011100001000011
00111100101001010001000001111100
00111111000000100111001100011011
10111110111001101010101011111101
00111110001101010001000000111010
00111111010100101010100100000110
10111100001011000000011101010000
00111101100010111101100111000000
00111101111101110110110001001001
10111111000011111000101110110011
10111110111111100001110001001101