00111101100101001011110111101100
00111110100101110111010001000110
10111011000101001011100010101001
00111110100010001010110110001011
00111011111110000100010011100110
00111110101010100000101001101000
00111110110000110001110110011101
00111111010011010001101110001001
00111101110100101100111011011001
10111111000001100111110110011010
10111111001100101111010010111010
10111110111011100001110111110111
00111110011010001110011101000110
10111110110100100000111111111001
00111110111110001111110000101011
10111110111101111101010111111000
10111110000101110010000000110100
10111101010010111010110100010101
00111100111100000100001100101001
00111101101101100001010011111110
00111101010011011010110011101111
00111110101100101000111011110011
00111111000110010011110011011011
10111111000111110100010010110111
00111110011111001100010100110010
00111110100101000010101111101110
10111111000110100110100100010001
10111110010000111100001001101111
10111110110111101100111111010011
10111110111001111001111011000111
00111110100001000110111101001111
10111110110001011110101011101010
10111011001100011111010000001110
10111110110100001101101111001000
00111110110000110111111110001111
10111111001010110101101100010000
00111110010001110101001101101000
00111110001101001100101110000011
10111101111001011011010011011001
00111111001010111000010010000100
10111110101100001111100111011011
00111111000000011110100001000110
00111110111101100010100111111110
10111111000111000010010001110110
10111110011001011101011011111100
00111110001001100011011100010000
00111110100101110010111110010101
00111101001010100000000110000110
10111111001010001000010011100000
00111111000101101000001011010001
10111111001100001000110100110010
10111110100011000010011001010100
10111110100111010111000110001101
10111110001101011110010011011101
10111110110000110101000100100010
00111110100100101000100000011011
10111110001001000011011011110000
00111111010000100000101111100010
00111101100101110001111100000101
00111110110001110001000011110011
10111110101101111111011101011000
10111101111100111111110100001001
10111110100111100111110001101000
00111101100010011001010110101101
10111110111100011101011011111110
10111111001010101101100100101001
00111111001100010100101110011010
00111111000110010011010000100010
10111110001000100110100111001011
00111110110001111100101100000100
00111110110100011010011011011111
00111101110000010000110010010111
