00111110110001010011010011101101
10111110100111000011010011000001
10111110110100111011100101010000
10111101010001011101000010010000
00111110111101010001010001000111
10111110000100000111001011100001
10111111000010011111101000101011
00111110000011111110101011001111
00111110111110001111000000100111
10111110001001010111001011000010
10111111011110001010000101011010
10111110101001111111000111011100
00111101111111110011011001101111
10111101111001100010100011001011
10111101001101110101100001001000
00111110101100010100110000010010
10111110110111011111111000101111
00111110010110111111001010000001
00111110100111001000001100100110
00111110011011011011000010011101
00111111001110101101101001010110
00111100000100011100010000010111
10111100101000100011011010011101
00111111000100111111011100000011
10111110001010100011000011010000
00111110101100101100000000101011
00111111000000010000010010111001
00111111000011111011110010001110
10111110000001111001110101111101
10111110101111110111010010001111
00111101110110111100000010111000
00111110110001100110100100101001
00111101110011000011111000111100
00111101110011111100000101100000
10111101110010111010011011011111
10111100110010000111000110101111
10111110110010010110111111010000
00111110101110000100100111100110
00111110111011001000001000100111
00111110100000001011100000110001
00111011101001010111000100001100
00111111000010011101001110011010
00111101001111010111000001100001
00111111001000000011100111111111
00111101111101001001111000101110
00111111000100010000010101010001
00111111010011000111000110010000
10111111001100100011100000001110
10111110100100000100110110111000
00111111000010000010010100110001
10111110100000001100101111110101
10111110101001100001111011010001
10111111000110011110101001111001
00111110010111101001110000001000
00111110111100001011110110010011
00111101101001100001000100011110
00111110000010000000000011111100
10111110000011001001111101000010
10111110101101001100100001011101
10111110110111111001101111110100
00111110001010011100001011010010
10111110011011100010111010011000
00111110101101000110100001100001
00111110011011100001101001011000
10111101010011011000010011000111
00111110101110101101110000100010
10111110011001010110001010100010
00111110100011110000001111111010
00111110111001101100000001101010
00111101010101001000110100111000
00111110000010111011001110001111
10111110101111001100001010001000
00111111001100101101000010101101
00111110011001101110101011100101
10111110010111001101111011101001
00111110010001000100110011101101
10111101100000110011001000110101
00111110000001000100100001101000
00111100011010011010001111000111
10111111010100110011010011010011
00111100110001010110100011101000
00111110111111011110110010010100
00111111010010101110110000010011
10111110111110100110101010011100
00111100010010001111011101111000
00111111000101110000110110011001
10111101011100100001110010001111
00111100011101000111001000110101
00111111000000100111010001101111
10111111001101100111110010100000
10111110000111110110001110100110
00111101101010101011101110111001
10111110011110111100000000101001
10111111000101010100010110000101
00111110100001111000011110111100
10111110010000011001000001111111
00111110110100011100110111110110
00111110001101000011100101001110
00111110000110001101110100011001
10111111000110101111101100011101
00111110110001110010101010000100
00111110110011100010000000010100
00111110010111110101110011110010
10111110110100111101100100111110
00111111010001000110001111010000
10111110101001111010010000101000
10111110010110110010111100100010
10111101111110110111010010001011
10111101111110011000000001000111
10111110001101111001010011010101
10111110111100111010010001010001
00111110110110011001101101010000
10111101100010001010101011011011
00111111000101010010110100110011
00111110000101011110000100110111
10111110101110000010110101010101
00111111001000001001110000100101
10111111000100001010001010111101
10111111001000111001011001000011
00111101111010100111011011101110
00111110011011101010110011110000
10111101101101101101100111010001
10111101101110010111110101101000
10111101000000001111111100111100
00111101110011001000111101010011
10111110011000111001101011100001
10111110100100010000111100111111
10111110100101001110111110001001
10111001110011100000010100100011
00111101101010010001001111101011
00111110001110110101110001011111
00111110101011010110000100010110
10111110000011101010001101011010
10111110111101100111001000110010
10111111000010011111010100110110
10111101000100010000010001111100
00111110001111101000101000101000
10111111001110101110101010001111
00111110100110101000000111011100
10111110101001011011011011000110
00111110111111101011111110111001
00111110100001010101111101111000
00111101111101101100101100010010
00111101110110100001011111101101
10111110101001101001110000100001
00111111000010011010110111001111
10111101100000010111100000110100
10111110111111011111000101100000
10111110001010111010110001101010
10111111001000011111110110011101
00111100100111110110100111000110
10111101000110110010000010100110
10111111001111010100101011110100
00111110101001010010010111100010
10111111000100011001110110100100
00111100010001100101010101011100
00111110111110101010110111101001
00111101000111010001100001000100
00111101011110111001010010010011
10111110011100001110001001111111
10111110101010011111011010011111
00111010110101010101011110011100
00111111000101101101100001011011
10111110001110111111101110011110
10111101100100001110111100111110
10111111000101011011001010111000
00111110011011011000101101110100
00111111000010010101100110001111
00111101110001101011011010001001
00111110100110100110101001101000
00111110100001000101110010001100
00111110000100000101110000011001
00111100110001010011011100100100
10111110011011110110001000011111
00111101010110100011010111111110
10111111001011011101111111101101
00111110000111110110100110011010
10111110111011000010110000111100
00111110111011011111010010100011
10111100111101011100010001011001
10111110110100110110010010011111
00111110101110011010010111111000
00111110100000001010111101110000
00111101011100001101001001101101
10111111100010101100101110100100
10111110001111000001100101000111
00111110100011001110101000110011
00111110001011011000111001101111
00111110001011011100101110011011
10111101110101011011000000010001
00111110010100101110010101010000
00111110111101101011011110110000
10111110100000000000111001000111
00111111000101000001110001000010
00111110001110101101001011101100
10111110100111001001100100101101
00111110100000011001000010111001
00111110110110110110110010010111
10111110001101110111111111111111
10111110110111110101111011011011
10111110000000100111010111111101
00111111001010100110010101001111
00111110110111111010011001011101
10111101100111110011101010001010
00111101110100001101111011011000
10111011110000111111000111111000
00111110100100100010101100110101
00111111000100001110101100001010
10111110100000100100001010110100
10111111000101000110000011110011
10111110111101111000100010010001
10111110001001000011101001000101
00111110100011110110011100110000
00111110111001110010011101001001
00111110000001001001010101011000
00111101111110011011011000000110
00111110001110111000001110010000
10111110100101001010011010001110
00111111000011111001000000100111
10111111010000011000001010000101
10111110000001010010000000010100
00111110011100111111010110101111
00111111001111011100110111010101
10111110100000011000111101100001
00111101011110011001010111101000
00111110101001010100011101110001
00111110101101011011011111000011
00111101100000001010101111111010
00111110101011100101010111110110
10111110001010111100111110011010
00111101101001110010101110011011
00111110101111101010010011010111
10111110101001001110000100100000
00111111001001000111010011100011
00111101011001010011110010110011
00111110100000100011110101101101
00111101111011110100000010100110
00111111000010110101111000010011
00111110111101001010001111111001
00111110101000100111010111110111
00111110001110011100100101100111
10111110101100100111011111100100
00111111001000100010011111010110
10111110101011011101111000100110
10111101110010011101001111111011
10111110001100011101000101001010
00111111001001101100010110000111
00111101100001011110111010011010
10111110100110111101000110000000
00111110100011101111101100101100
00111110101010101100001111110100
00111111101011001000101010000111
00111101110110101011100010110010
10111110101101000010011111011010
10111101110111101001110001110100
10111101010010110000110000001110
00111100100110110011001110100101
00111101101110000110010010111111
10111110101011101101101101110001
00111110110110011000111110110001
10111110111011100000110100101110
10111110001001010011011110001001
10111110001101110100101011011101
00111110001010110101000110100100
10111110111100011111011111110010
10111110101011101000010010000001
10111111000000100100111111110001
00111110100010100010000100010001
00111111100001010011011101110011
00111101001110100111110110111100
10111110010110010001111001101001
00111110110001011110100111001001
10111101111001111000011110110111
00111110110110011001000101110000
10111101100011110011001111011010
00111110000001000001100101010110
10111110100001001111010010001111
00111110110101110101110100101111
10111110110111010011101000000011
10111101100101101111111010011011
00111111100000001100110101010011
00111110101101001101101001111010
00111110000110110001011110011011
10111110110001111110100100011010
00111110010100101000010000101100
00111101111110111111111000001110
00111110001001100110110011001010
00111110111000011011110000010010
10111100001011111010111101110011
10111110000110001000011111000001
10111111001000001010110001110110
10111110001110001010100100100100
00111110110010010111011001011001
00111101001010101001111111110110
00111111001001110111011111001110
10111110100110011111100111101110
10111111001010100100100011100001
00111101011111111001011100110000
00111101011110101100100101100001
10111101100001111101110000000111
00111100000010100110000100101011
00111101110100110101100101111001
10111111001110001000000111001010
00111100010001110100100000001001
10111111000000101010010101001101
10111111011011111101001001100100
10111110100100000011010110001011
00111111001100110001010110010100
00111111001000111000100101100111
10111101110010001001011111111111
00111110100000010001000010100001
10111100110010011111010000001110
00111110000001111011010001001000
00111011010010001000000110111000
00111101001001001011010011101010
00111111000000001010001100101100
00111110010001110001101011011101
00111111000110111111001000100100
10111101000111001111001100111111
10111110000011001010111100010101
00111110111010100101010001000000
10111101110100110100011111011010
00111110010100000100100111101101
10111101111101011100000000111110
00111110010101110011000001110010
00111110111010011000101110101111
00111111001011101100001001100110
00111110101000111011110100111111
00111110001111011101111111001000
00111111010010100001100000000000
10111110101110001100011110000100
00111101100010001000101000111100
10111111010010001101111100011100
00111110000100010011000000100100
00111110100010110011110011011100
10111110010101101001110001101010
10111110000000111011010000110101
00111110100110110010011101110010
10111110001100100111011100011101
00111110111011101111000100000110
10111110100001110011000111001000
00111110010011101001011010010100
10111110110010011100010000110000
00111111001010110011101101110100
10111110100001001110101011101000
10111101001000110111010000100001
00111111000000011111111010010000
10111110100111000100011000110101
00111101110110100100001000011111
00111110110101000010110011001101
00111111011001100011101000100100
10111101001101011010100110010001
00111110001000110000101110000000
00111111010111110010011011000011
00111110110011000100000000101110
10111101000010000110100010011100
00111110011100101010101000010000
10111101110010101111011111110111
10111110100111101000001101111101
10111110010000111001010101001100
00111110010001001101111011001011
10111110110000101100001111101100
00111110010110101100110111001100
00111111000110101000000000100111
00111111000001100100100000111101
10111110110010001100101110111101
10111110011011011011110000101110
00111110010101111000010011110101
10111100001100111000011000010000
00111100001110110001001011110000
10111110000101010111110000010010
10111110100001010110111010001110
10111100110110010111110000010110
00111110011010101101111011001110
00111110001000001100000000110010
00111111000100001101011010101111
10111110101001010100111111100111
10111110110110100111011110000110
00111111000000100110001110111000
00111110100011011010111001111000
10111111000111110111011101100000
00111110000100001010110000011110
00111111000000011100101001001010
10111110101100010010000000110010
00111110110010000111100101010011
00111101010101101011010001011101
10111111000110001001011000010011
10111110110011110010010000001000
00111110000101111000011000000101
10111101111010101100001010001101
10111110010001001111000101010000
10111011100101000010000100000101
10111100010110101110001011011111
00111101111110110010010101111001
10111110100110001110111100001100
00111111000011010111101110010110
00111101111111110010000010111110
00111111011101101011101001001110
10111110101111010100011010000110
10111110110010000000111000110010
00111111000000010000010110101011
00111110101010100110110001001111
10111110001100000110011111110110
10111110000010110000010111101111
10111100111101011101101100000101
00111110100101001001000101101101
00111101101100011110111011001111
10111110100101001100101011010001
10111110110001101111111000001001
10111101011110101000100001000001
10111111000000110011001001100011
00111101000011000100011110101001
10111111001001100110011010100010
00111101010101100101011100011110
00111101111001111101110110010001
00111110110111100000111011111110
00111110111001001010001001001000
10111110101100110011101001100001
00111110101100111111011001110110
00111111000000111001100100000110
10111101110010111100011001010110
10111110100100101101011100011101
00111101001101010101110110101001
00111101101000110010111111101110
10111110111000110000011100100110
10111111001001111001111001001000
10111110001101111111110101101100
00111110001000011110001111111000
00111111001111101011110101001011
10111110000111010000100010101001
00111110111100100001010010010010
00111101001010011001100111110010
00111110000110001111111111010000
00111110110110101011000111000000
10111111000101111010000110001000
00111110100010000000011101001110
00111111010000101000101101110100
10111110110010100000100100100110
10111110010111101101001011001000
10111110100010001010011110010100
10111110001100001110111011001101
00111110100011111110001100011011
00111110111011000010101110010001
10111101101101000110011011100100
00111110110001100111110101010000
00111110101111110011100101010111
10111101000000100101000111111011
10111110110001010010101110000100
10111110100101101010001110111001
00111111000110000100000000001110
00111111000010001010011110011011
10111110010001110101110011000110
00111101100100000100111100110111
00111110100000101011011111110000
00111110110111101001000000101100
00111111000000101000000010110000
10111110110000000101110110000100
00111110101010110001001000010011
10111111001101001101111010111101
00111110100111111001101001111110
00111110001111101101000111001001
10111110100111110100110000001001
10111110011111100101011100000111
10111101011100100000010010110110
10111110011111101100001010000100
00111100111101000101011111110011
10111110011011011111110000111101
00111111000011100010011101000101
00111111000100000001000100000100
10111110110000000100011000000111
10111110010011110011000010110111
10111111010100000010011010111111
00111110001100100100011011101100
00111110010011110100010110111011
00111110100100011101101101111110
10111110011001110000000111011100
10111110000100111101110101110011
00111111000100001111100001111100
00111110100000101111111010000111
00111110101110110101001111000100
10111110110000001101000101101110
00111111000101010110010110111100
00111101100000011101111000100111
00111110100100001000101011010011
00111111001010101101011001010111
00111110000011001101011111001100
00111101000001010000011110101010
10111110100100010110000011100000
00111101100111001100001100101101
00111110011001010100001001010100
00111110111001111011001010001011
00111111001100100111000101111010
00111101111010001101000011011000
00111110100001101101111001100100
10111110100110000001000001111011
10111110101110011000001001100000
00111110110100101111001000001001
10111110011011000110011000100000
00111110100101111011101110001000
00111110010111111100010100110001
10111110101110011110111010100000
00111110000011000010010011110100
10111110001001001001000100011010
10111110110010110000000111110001
00111110011001101100101001001000
00111110110001100000111000011101
00111110101001111011001110101111
10111110010110000111101100011111
00111111010010011100110011110001
10111110010100101111011010110111
00111101111000010000110100110110
10111110100000001111100000101101
10111110111001001111000101101101
10111110110010110011000011110000
00111101110000111100011111000101
00111101111001100010011010110111
00111110101011010001001111001011
00111111000100001101000011100001
10111111000100110011111110011010
00111110100101110101110011100001
00111110100110110010000111011010
10111110101101111110110010111001
00111110100111100111111001000000
00111110011111110001110100000100
10111110110000101001110001000011
10111110111111010001100011110000
00111110100110000110111111001001
00111100101111111000101111011101
00111110000100101110101111011000
00111110101100111001101110100010
10111111000101111001010000010101
00111101101001101011111011010111
10111111000111101101111010100100
10111110001000001001011101101101
10111110011100010000001100001100
00111110100101100101000011001011
10111111000110100011101001110001
10111110111100100100100100001000
10111110101111101010011100001111
00111110010001101101010011101010
00111110000110110100010000011010
00111111001001101100011111100111
00111110101001010101100100101100
10111110011111001001111101111111
00111101010011011100111011111101
10111111011100001001111111101100
00111111000110010110001010110010
00111101101100101010001100001111
00111101111100101111010110111000
00111110110011010110111001100011
10111111010010010011010101101000
00111101110000001101100010100111
00111110111101101010110101000101
00111010101111100110001001110101
00111101110100110010101110001001
10111110101011010000101111100111
00111100011111010100110010100111
10111101001110001000000101001010
00111101001001001011111110011001
00111111000011100101001110011100
00111110101011001011111001001001
00111101101100011101000111011001
10111110000101111110011010001000
10111111001010010000100100101100
00111110100011000100011100100111
10111110101010101100101110011010
00111101001001110111111000110001
10111110111010110111011011111100
10111101011011000000001011010101
00111111001000000001100100010000
00111110101101111101001110001111
00111101100001001011111100100100
00111110010110001110111001010010
00111110111110101001011001001100
00111101110000100110101000010110
00111101100000011101111001001110
00111110100110101101001100001011
10111101111001100100110000000001
00111101001010011011101110000110
10111110110100011101100010100100
00111111010110110011101011001101
10111110001010010010101011101101
00111110010010110100101100101000
00111101111010000000011100011101
00111101010010011010111001110101
00111110000001101111101100010001
10111110010100111100010101001000
00111110001110000010111011100000
10111110010011001001100001010000
10111011111100111011010001000011
10111111000110010010000000101101
00111111001100000100000000110001
00111110101010110101001111111001
00111110111001000111100100101000
10111101011010011001000010010101
00111101011101001001110011111010
00111101011101001000111110011010
10111011111010101101000100111000
10111110010101100110110001110100
10111111000000110011010111101000
00111101011110011111101110100001
00111111000010011101110111000001
10111110001100111110111101101111
10111110010010111011000111010111
10111111001001111010101000001010
00111111000000001101101011000110
10111110101011010100100100011111
10111110110011111101111001001011
00111110111111001010101100010011
10111101101111111110011110011100
10111110111000011000000010011011
00111100110000011100011110110100
00111101001010110110111011011110
10111101111010100110111000100011
10111101110001110011000110010101
10111110110111110101011101010110
10111110011101111101010010011111
00111110001000111100101100111111
10111101000000110111011011111000
10111111001100100010101101100111
10111110010000001101011111101101
00111111011111010011111101011001
10111110000100101011010101111011
00111110100101011001110111111110
00111110011110001011000111010000
00111110100000101101000110000111
00111101000111011111001101010101
00111110100111011101100011000111
00111110000010111000100100101110
10111101010011010100101011110101
10111110000111001101101100110101
10111110100001111111110010011101
00111110000011011110101111100010
00111111001100101001111011000110
10111110011110110011100101111100
00111101001011011011011001101111
10111110100101000010001111101101
00111111010011111101101100111110
10111111000000101100010010000000
00111110000101101010110010001101
10111110101001010001011011101011
10111110111010000001001010001101
10111110100010111000111100111111
00111111001011100110110100110100
10111101111001110001000001011110
00111101001110100010011010101011
00111110100101000001110010101111
10111110100100000010111011011001
00111110101001000100111110001110
10111110010110000000011101111011
00111110100010110101000000011100
00111111001111110101101001000001
10111111000000110001101110011000
10111110101110100100010111011001
10111101011101000101101110010111
00111110010001110010000101101100
00111101110101011000001110101011
10111110100100110001010010111100
10111110101000101001111101110100
10111111000111001100010000001111
00111101010111001011001101101011
00111110100010101001010010101010
00111110101111001000001100000011
10111110001010010111110010010011
10111111001110110000100010100011
00111111000100100101010001101000
10111101011010101001001110001011
00111101011100010101100001111101
00111110011000101001010101000000
00111110111010100101111000111110
00111110011110100001001111111101
10111111000001011101100010011001
10111110111101111100011010100111
10111101111101110011110001111101
10111111000101001111011100101100
10111110001001001100000101001110
10111111000111110010110000011101
10111110110110010110000100010000
10111111000111001011100000000110
10111110101110000101111100000001
10111110110100001100110110010010
10111101000011001111001001010000
00111111001101101010001110110001
00111111000001001100011101000001
00111110000101101011010101111011
00111110101110110110100011001011
00111110010011001111110100011101
00111110010001000101000000111101
00111110100011011001110011101001
10111110000000001110100011000101
10111110010101010001011101101101
10111110100000000000100001101011
00111111000000001011010011111001
10111110010111001011000010001100
10111110100001101011100010001000
10111111000011001111111110101011
10111111001011101111001011100010
00111110010011110110011000101100
00111110100011111110000110110110
10111101001110011100011010110011
00111110001000110101001110010010
00111110000111000001011010010100
10111101101101000101000000001011
10111110111101011001010000011110
00111110001110100000000010001011
00111101100100110111111000110110
10111110100010010101010001011101
10111101000110010101100000111111
00111111000000100000011000001010
00111111001010010101010100111110
10111101111111011111001000111001
00111111000001111011101010010100
00111101111011010110000011010101
10111110010010000100100011111010
00111110100001111110100000000010
10111110100011001011111111111010
00111111000101100001110011111111
00111110100101011101001111001010
00111100111001010110010011011001
00111111000001101000011000001000
10111110101010100110111101100110
10111111010000100100111000110010
00111110011000110110101100111110
00111101101110010011111110010100
10111110010010111011110110110000
00111110010001000111011100111000
00111101110001101101000011110110
10111101000110101001110000111110
10111110100110011011000010000000
10111011011010101110001000110011
10111111000100111011111111010011
10111111001010000111011101011001
10111111000000001100101110110011
10111110000110010101101101001000
00111110000011100010010101100101
10111111000110101111011010100100
10111101001111011100111100000010
00111110010111001100011001000000
10111110000100111000011000110010
00111110111101100001101010000001
10111101110101111011001110110010
00111110100111011000001011101110
10111101000111010111010011101100
10111110110000011110100010111111
10111110010110011000111011010110
10111110101001001111111101110101
00111111011100100101110010010011
00111111000000110100111010111010
00111101011101110111100111111111
10111110010111011010110111010011
10111110101010111100000101000101
10111101001010011000010000110001
00111110110010101001010010010100
00111110001000011110110101001011
10111110111101111001101010011110
10111110101100101010101110010001
00111110111001101111110110111001
10111110001011110100000110100100
00111111010000110000001100100110
00111111000010111011110011001011
10111110110010100000110001100001
10111100100101011100100011000000
10111110101000010011001101100011
00111101001011000001110011111000
00111110100001000011000111000101
00111110111100101011100011101000
00111110010010011011000000001000
10111110110101010110010001110111
00111110010110111011101010001101
10111110100101001000111011011110
10111101100111000111101011100101
00111101010111000000100101110101
00111110011000100001001101000111
10111101001100000110001011010101
00111111011000011000001001110111
10111111000100101101101011001011
00111111001111010101000011010010
00111110101101110011011101101111
10111111000011000010001010011011
10111110110000011001110011000000
00111110001001000100010010110010
10111101010110111111011010011101
00111101110111001100111011100000
10111101010011101100000000000001
00111100101111001011101100011000
10111110110111011011101010001110
10111101101011101110000001000110
00111100001011101001010110100000
10111110011000100011010101100110
00111110100110101100111111011101
00111111000110100101110101110111
00111110111111111100100100000000
10111110100100100101101101001010
10111110010110011001000110111111
00111110011000010100011000010111
10111110110110111001101110010100
10111101001011101001110000000111
00111111000001001011011110000011
10111101010110001010000101011100
10111111001101101111011011111110
10111110110101001100101001000111
00111111001110011001000010011110
10111110110101001011010001101101
00111111000111100110011010001101
10111101111011001101101111011100
10111110110101111011100101100011
10111110010101101000100100100010
10111110110011101001101100100001
10111111000001010000011101100011
10111111000100000101001101011010
00111110000101010110110110010111
00111101101110000010110101000110
00111111001000101011100100110010
10111100001010010000101000100111
10111110101011100001101101010011
00111110000111000110010011101000
10111110011110100011011011100000
10111110100100010110110100100011
10111101100100111011111010011011
00111100100000011000001010000011
00111010100000011011100100001000
10111111000111101111011111101011
00111111000000100000101000000101
10111101101010000011001001010100
10111110101101101011001001001100
00111101111010011000101010111010
00111110000100001111100101100110
10111110000011101010110100111101
10111101100110111000001110010010
10111110100011100001110001110011
00111101101100000101110001000011
00111111000000100001001001000000
00111110110100110001000010010101
10111110110101011000110010010010
00111101100111011110000010010011
00111111000000111001010010011110
00111110000001100100001101101000
00111110010111110001000100101001
10111101110001110111010010001010
10111111001100111110000111111000
00111110000111111111101110000110
10111111000101100110000010001001
00111110100100010100000101010100
00111101110010110101010110111001
10111111001110000011111101001100
00111110000000000001101100001101
10111101001110110001011011010000
00111111011000110111000101101010
00111110110000100000001101000011
10111110101100010010100011111011
10111110111111000001100010001100
00111110110111111110100000100101
00111110111000111011011000010110
00111110100010000111100101110101
10111110010100010010000010111010
00111100110111011011111010001101
10111111000101101100001100110001
00111110010001010000110101111111
00111110011101100010110011000001
00111110010110000011000001000110
10111110111100000100100000011000
00111100000001101001000110110101
10111110000101001000110101010011
00111101011000011111110011000110
00111110000000010010111011111100
00111110100010010000100010000101
10111110000110000110110010110010
10111110111011101100100011000010
00111110101101001100101101001011
00111110000011001111000111100101
00111110011101111000110111001011
00111101001101010101011010111000
10111101000000001011010010011101
10111110100011100000011010101101
00111101010011001110110100011111
10111111100000010101111111001110
00111110110101111000111010100100
00111110001011001000111001101100
00111110111100100101110101111110
00111111000101101111010101010001
10111110111101101110111110101110
10111101001110100101110011111001
10111110101111101001000001111001
00111110000111111100111010101101
10111110111011000101011000010111
00111111000010010111110011110010
00111111001110110101011101001101
00111110011110110010011011001100
10111011100001010001011000110000
00111110110001010110001111101101
10111101100011010100011001100100
00111110110111001010010000100010
00111110100011110010111101000110
00111100001010011001111111101111
10111110011100101001110111101110
00111110100100101011000111101101
10111101000010011001100111111010
00111111100011011011101100010111
10111101110101010011111110111110
00111101011100110111011110110101
00111101101010011111100101111111
00111110101010111100000001100101
10111111000001011110110101010011
00111111000100010111111100000101
10111101011000000110001000110111
10111110110111111100011111000101
00111110000000111010111011010100
10111111000100001000010010111110
10111110010010110010001010110100
10111111000001001100000001100111
00111111000110000100100010110010
10111110101110000010011001001111
10111101100001111000010101111101
10111110101101101100001001110010
00111101100000111000100111001101
00111111000001001111110110101011
10111110101001110011101010110011
00111110100010000001000101101001
00111101111010010100100110101111
00111110001101001001001111000110
10111110011110001111010101000110
00111110011011111111100001001110
00111110101101111100011100100011
10111101101001110111110111101001
00111110101010011101000001011010
00111100100000111100100011100000
00111110101100000101000001011100
10111110011111000100001111100100
00111101110000010010001101000011
10111110010011000000010010100110
10111110111000011100111110100101
10111111001111011111110011100001
10111111001100110111100101101101
00111111001101000011100011011000
10111101111011001111100011000000
00111011101111000100010011111001
10111110111010100000100100011111
00111110101001110111001001000011
10111110011101111001010000010110
10111101111100111001111111110111
10111101111101111001000000001000
10111100111101100100011100110000
00111110101010000000000110101000
00111101101010001010110111110101
00111110111100011010001000111111
10111110110010000001110110001001
10111110111100011111100100111010
00111110001110101000001011111100
10111110100000110110101110011110
00111100001110111111010001001000
00111110001010100001111110001001
10111101011111011001100001000111
10111111000010000110001000011111
00111110110001110100001011011010
10111110100000101011011100101101
10111111000011100011101110110100
00111101100000100011110111001010
00111101011110101100111000100000
00111110101110000000000001000110
00111010000011110010011001011101
00111110100010011111011011111000
00111011110001101101000000101011
10111110010001001000100110010010
00111111000010110111111001001000
00111110111110011110111011010100
10111100111011000001001111101110
10111101110101001100111110101000
00111100110110000001111100001100
00111110111100110101010011001100
00111110101001011100001011011101
10111110101111000101001101101001
00111111000011100100111100001010
00111101100010101100110100011110
10111110000100100101010001101101
00111111000010101101110011011000
00111110000011010010011101010011
00111110001101000101001011110001
00111111001000110011000010100101
00111011100001110001100011101101
00111101100010110010111000100010
00111110101011000111100101111011
00111110110010000010111011101111
00111101000110000001100000010010
00111110011010011000110111000000
10111100100001000111110111011000
00111101101101110100001001100001
10111101101000111101000101110110
10111100100110010010010100101110
00111111100101000011110010010000
10111100111100100110111110011110
00111101000010110011011011000010
10111110101100011010010101101110
00111110111001100010001011101110
10111101011110100110100011000110
10111100110000111101011011110000
10111110110010101001100110110010
10111110101000100001110000001100
10111110111001010010100100011110
00111110100000101010011111111001
00111110110100100100011110111011
00111101010001010100110111010111
00111110100100001001010111000110
10111110101011000011010001111100
10111111001110010000000000011000
10111100101100100000100000000011
10111111000100110010001000100011
00111101110001110111110111011011
00111101011100011010001000111111
10111111011000011110101111101010
10111110001100100011110111101010
00111101100010010101100000111110
00111111000011110100010111010001
10111110001000010000101010001111
10111110101010000011110111001100
10111110111011111001110111111000
10111110111010110100000011001011
00111110000100001111000000011001
00111110101101110100001110001010
10111110111101100000001001111100
00111110010010101111101110101000
10111101110101010011001111001000
00111110110110100111101110110100
00111011101010011101111101000101
10111110000101011011001110110110
10111110011000000001000001100111
00111110111011011110001010001001
10111110010010100000101011110100
10111101100100101001101110110010
00111111010011101100111001101000
00111101101000011101010100010001
10111111011101111111101000111010
00111110010101010001000000001110
00111111000100100000001010010110
00111110000001001111011110010011
00111110001001010101111010011000
00111110100001001001010101011111
10111110101100100011000111000100
00111110010101010101010111101101
10111101110101010011010100001100
10111110111100001101111001110001
00111110000111111101001101001011
10111110111001101111110001010101
10111110011000000010100010001001
00111110100001001110110100111100
10111101101111000101000010101011
10111110111110100100100100001000
10111110110100011010001101110010
10111110110001111000000100001011
00111101101110111111001001101010
00111111000100101011001111111100
10111110111001000011100111110011
10111110000001110110111011011100
00111110101000100011101001011111
10111100101111000111111000000111
10111110100011001111011111111101
00111110110000010000001011100000
00111110100110110110010001101101
00111100111010110001100010101011
00111011101100000000000111101000
10111100001001000100111110110100
10111110100111001010011110000010
00111110000100010011110100100100
10111110100111100010001010101000
00111110110110111101100000100011
10111110100110001110110101011100
00111110000100111110010010011101
10111110111100101010010100100101
10111110100101100111010011000011
00111101110001111011110010010101
10111110001100111101010111001100
00111110100110011101110010000100
00111110100010100110010111100001
10111110000001000100110011011110
00111111000111100111011000000010
00111110110110001101101000001010
10111101111011101001000010100100
10111110101111010100011010101100
10111110101111001111010111101100
10111110010011001111001101011101
00111100010000101000101100110111
00111110010010110010000101110000
10111110001000000011111101101110
00111110110000110101101000110101
10111111001111000010011100100101
00111110101110110101100010000011
10111101001011111101111011000001
10111111011100111100001100100000
00111111001000010101100111110001
00111101101100010001001010101101
10111101110110110100010001011101
00111101011010111101100010011101
10111110010111111010100011010110
10111111001011101000100101100001
10111101000111101001110111101010
00111110100110011111000010010101
00111110001001111000110111101011
00111110101000000010101101010110
00111110100100001101111100010111
00111110111101000101011110001001
10111111000010001000000111011110
00111110011110000101011101110001
10111111000100111101011011000000
10111110111111011010100011000100
10111110100110101101000110100111
10111100110010111010001000111101
10111110100100100110101111111000
00111101011100001000110010111111
10111101110000010000011011101100
00111110010110110100000000010110
10111110010000000011110010110100
10111111100101001010011111000101
00111110011101100000110010010010
10111110001011010000010110111011
10111110001011100111001010001010
10111110010000111000011000001010
10111110101010100011011101110100
10111110101001000111000000000000
00111110110111111001101011001001
00111110100010011001111010001010
10111110110011111010101001000100
10111111001100111001010011000000
00111111011110011111111111001010
10111110000000111110001101100001
10111110110011010111111010101101
10111110110100111000011110010100
00111110100110011101000001111001
10111110001010111110100001110101
00111101010111001010100000101010
00111111000101110000111011001000
00111110001111111000000110000101
10111110110001011101001010111000
10111110011101010100001001100100
10111111010010001101011111011000
00111110011011001101111011100100
00111110001011001110001100011000
00111110010101101011010011011011
10111110001101011111000111001010
00111110010110100100000000010001
10111110111111011001010010101001
10111110011010111000000011110110
10111101110101111000110010110111
10111110010110001000010111011110
10111110111011111001100110010111
00111110110011100000101101011111
10111110000110010010100101000101
00111111000100011100101111000011
00111101100110111010010001100011
10111110011111001111110000101001
00111101000101011000011111100101
00111110001110001110110000011110
10111110101110101001010001001100
00111110100111111101011101001001
00111110101010011100100011100010
10111100111001001010001001000101
10111110101001010011010110001001
00111100111101011111110101110001
10111110100000110001000010101100
00111011100000111010001101101011
10111111010000010011001001100101
10111110101000111100101010000010
10111110100111011101100001011001
00111111000010101111001001111011
10111111000000010110101111010101
00111110001100111110001000001111
10111110100100011001001100110110
00111110110111101011001001000101
10111110011110110011111110001000
10111110010010001101010010110111
00111111001011011111111100111101
00111110111010110011100001000101
10111110100111101100101111100011
00111110101110110011100100011110
10111110010001100110010100100110
10111110111101111110001101011100
00111001011100001111010000111101
00111110110001110100010111101000
00111110100011001010011101011110
00111101100011100100101110100101
00111110011000110000000010100100
10111011110110011100000001100100
00111110101101101010001000000101
00111110001101111000100101101001
10111111010101100110100111110101
10111110010000100000000100010001
00111101100110001100110110110100
10111110101010000101010110011000
10111110101001010101000011010010
00111110110001101001100101100110
00111110110101100100101010110110
10111110111110101110111101100110
10111110100100000101100011011111
00111011110000000101110111110000
00111110110010011111010000111110
00111110111010110001011111111110
00111110001101001101111101001001
00111110101000100010011100111111
10111101100001110010111110111010
10111101010100110101110111100011
00111110000110111111110011011110
00111111010000100100100101110011
10111110111000000010111101011110
10111110001100110101100010110000
10111100100000101101111101100101
10111111010010100111010010001100
10111111010001101101000000110110
10111110110001001111111101101000
10111110101110100011010010001101
00111110100011110100001101000100
00111110001111001000100000111011
00111110110000101001111110011111
00111110100011110001000111100100
00111110101101010000011110100100
00111110110101011110100010000101
00111110101010101101010011100110
10111110100111011110001011101110
10111110110100100101000000100011
00111110110001001010101101111001
10111111000101111110110110111111
00111101111011100000101000110110
10111110110010011010011100100101
10111110000110100010000111111001
00111110100010110001001110001001
10111110111010100110001111011010
00111100110011000010011001111100
10111110101101101010000110110011
10111101110001111110010111110111
00111110100001000010100100000001
10111110100100010111011000111100
00111111000101010110100010000111
00111110110111110111010001100111
10111110100101000000011101010001
00111110010111101011000011111010
00111110111001110001111100000011
00111110100010011101000111101001
10111101100000101110110011000000
10111110110100001100010010010100
00111100001110101001111101111011
00111110001110000110010011000110
10111111000010101101100101000011
00111111000001110111011011110000
00111110101110010100001111101101
00111110110010010000111010101001
00111110111100011010100000010000
00111111011011011111100101111000
10111110100111001001111011110000
00111101011100101000001010101101
00111110100111001110110110000011
10111101100000110011000100010101
00111110101000000101110010011010
10111110110100100101100110101101
00111101001111011010101001010010
00111111010000110000001011001010
00111110001111100011111010111111
00111110000101011011111110011001
00111101101000000000001010010000
10111100000010001100111111010001
10111110111000000010100010010011
10111101100011111111000000010100
10111111100000101000011100100011
00111110111000111101001001010110
00111110001010111111011000100001
00111110100100010100110110001011
00111110100100111101100011111110
00111110100111110100100001000011
10111101110101101001010010001110
00111110100010111110000001101000
10111110001110111010001111011011
00111101110011010101110011100110
00111110000000100011111101110100
10111111000100011000111101010100
00111110111000011110110011000101
10111111001111011000111110111110
00111110001101101100101101001100
00111101100001010111010010011011
00111110011100111000111011001110
00111110010101101001010111000111
10111100101100101110001010111110
00111110101101011111010111010111
10111111001001111001010110111101
10111101101001001100110111010011
00111110100001111101101111111110
10111101101010100010000111011100
00111110111110010010001011000010
00111101111011110011011010000011
00111111000111111100010100110100
00111110100101010001111000011000
00111110010110110011101011010100
00111110011101001010001010000010
00111101100011010011011110010010
00111111010101101111000001110011
10111101001101000101111100101111
10111110010011110110111110000010
10111110010010100110100010110010
00111101000001111010000111101011
10111101011100101000011110011100
00111110100000111000011001011100
00111101100111100011000110111011
00111110111101110101001101001001
10111111000110001001100111011000
00111110110100101000111001100011
00111110110110000001110011100000
10111111000111100011100111011001
00111110100110000010101000001110
00111101100011011000010101001110
00111110101000101010110000101111
00111011111100110011000110001101
10111100100101111001111011101001
00111111001001111001001111001010
10111101010100000110101011111101
10111110111111111011011100000101
10111111000010100110011110100011
10111111000010100011011101010011
10111111001011000100001010101011
10111101110101101100001111100111
10111111001101100100000101010011
10111110011101110101101001011101
10111110001011001101101110111000
00111111001110011010001110011100
10111110001100000011001000110100
10111110101100001000111000110100
00111111000001100000100110001000
00111110010101100110101010111011
10111110101011010101100100110110
00111110011100011001001111100010
00111110100111100101001101000000
10111110101001111100001001100111
10111110010001000100010001000001
10111101100101100010101011101010
10111111010110111000110110011000
00111110110111111010101101111111
00111110110110110100100110000000
10111011000110001001111110110110
10111110011011000110010101101111
10111110011100110000000101110110
10111110011100000101001111010110
00111101001001000011010011100010
10111101111010001011111101001010
00111110011101100011011000111011
10111111000100000010011000110010
10111011101010111011010111100110
00111101000010101110110111001111
00111101111100000101100111011100
00111110100100010101110000101111
10111110101111110010010011011110
10111110101001100110011100010001
10111110110001001111110101000111
10111101010011011000110001101111
00111110100001011010001101000100
00111111100010011100110111101001
00111110010010000111010010001101
00111101100000110011111101011011
10111110110010111010101111000111
00111110000101110010001110010011
00111101100100100110000111001011
00111100100100100100001010011100
10111110110001101010101000110110
00111101010001100000000110011001
10111110001010010011010001101001
10111110010000101100011000101100
00111110100010101111010011111000
00111111000110000011001001101110
00111111000101100010111011001110
10111100100011100111100011100111
00111110100010111101100010011110
10111110111100110001111101110000
00111110000100101001101000100101
00111100110111000111010011000110
00111110000101011011111101010101
10111111000110011101011100011100
00111110010000100001011101001110
10111110011000010110101101100100
00111101011000100100000100101110
10111110110011111111000011110111
00111111010000101110101110001101
00111110110011010101110101000001
10111110010011100110001101101111
00111110100100010001001011011110
00111110010000100001011110010011
10111110011111001011110000101010
00111110101110010011000000101110
10111011101111100110001110011110
00111110110001101101001011000001
00111110000010101100011101010110
00111110001111111100010000010111
10111110011001111101101010110000
00111111001000100010101011110001
10111100111111010111110010010001
10111110110000000010111001101101
10111110110101111111101010100000
00111100011110001010110011011001
10111111010101110111101011011111
00111111000011011000000001111111
10111110000011111011100001010100
10111110010100001111010100111110
00111100001010010010010100000011
10111111010000100001011001110101
00111110110000110011110001011111
00111101111111110110111001011111
10111110011101000010100100110101
10111110001111100100111101001001
10111111000010001100000000001111
00111110101011010110000100011001
00111110101010000110010000100000
00111110110010100011010111001111
10111100110100111110010000110100
00111101011000001011111110101111
00111111010000010111111101011101
00111110100110111001100100110011
00111111001001001110010110110101
10111110011100110001110001011000
00111111000111101101000101111111
10111110100011110100001010010001
10111110010110011110111100101011
00111101100100101000101101001000
10111110010110101001111111011010
10111111001001011111010110010101
10111100100001011101110100011100
10111110110101001100001110000111
10111110110010011111011011000110
00111101101001001100100000010110
10111101001111000001101111000011
00111110101000000100101000000100
10111110001111111110110101100001
00111101101110101000111101100011
00111110000101000010000100011001
00111110101000010101000011011111
00111110111111111000111110011100
00111111001100011110110011010110
00111110000110101000101100010110
10111110111110111000110111100010
10111111000100000011000000101010
00111111010000101000000110101010
00111110111110101000101010100111
10111101000011011000010111100001
10111100110101100000100101000110
10111110011111010011011011000010
10111111000010101000011110000011
00111101100011010110000111000001
10111101100100000111101000111110
00111101111111110111110001110100
00111110101010010100010111110011
10111110100110110001001111010001
10111110111010100110100100001111
00111110010110010110010011101101
10111110101010010011010101111001
00111110100010000001000001110100
00111101101000011110111001001011
10111110000000100100000110000100
00111110010011100110110101010110
00111110000111110011000010000110
10111110000010110010011000101001
00111101011001110101111010011111
00111101010100001110010100000010
00111110110101011110010001001010
00111111000110100011111010110111
00111110101001010011001000100000
00111110101110001101111010110011
10111110100001010001000111010010
00111111010111110101100101011011
10111110011110001001101011011111
00111110101000100000101010110110
00111101000110110111110110111101
10111111000011000011010111010001
10111110110101110100110111000110
10111110000110000100001001001111
10111110110111110001011000110110
10111110011101111111111011000100
00111111000010011111001010101100
00111110010011110000001110011111
00111111000010001011011100011001
10111110000110100101100100100010
10111111010011110001011010000010
00111111000110110100110111100100
10111110100000111110111110000101
10111110101101100111011101100001
10111110100101110101100110100111
00111101001110101111100101000111
10111101110101110101000110100100
10111101111011110111100100100101
10111101011111111101100010011001
10111110111111010110111100000101
10111110110001011001110101001000
00111110100110011001110001000100
10111101010101011111100100011111
00111100111111111101001001010101
00111111001010100110001000001010
00111110101110000000010011000000
00111110100001010100110010001000
10111110111010110110000111101000
00111101100011101111101110100101
10111110110001110111100000000100
00111110100110010010100100100000
00111110001001110111110001101110
00111101001101111010000001110001
10111101110110100000001011011011
10111101100001111000001110110011
10111101010100111100101010010111
00111111001011000111101011000110
10111110101100111101001001100101
10111110111100111000000011001011
00111110001011111010111101001100
00111101100000100000011101111111
10111111001101011011010100101001
10111111000111011111001010101100
00111110111011110011001100111111
00111110110010010101111101000010
10111111000111100011010000100000
10111110011111000111100001001010
00111110000111100011010001011100
10111110111000110011111010100101
10111110000001111100110110001010
10111110101010000010100111010001
00111111001100010010010001010111
00111111001000011110110011111000
00111101101010011101011011010100
00111110100001111001100000000100
00111110001001111110011000110100
10111110110001100011111011001110
10111110110010110011000101101010
00111111001101011110100011100000
10111111001111111100011010100101
10111110101101100100101000100101
00111110011000011100110110011011
10111110011011110100110011010001
10111101100000111000011101000110
10111101101110011101101000011011
00111110010110101101011010011001
00111110110001100110001101010001
00111110010010100010001101000011
10111110011001011111010110110010
00111101101111011110011001101001
10111110011001101010000110110001
10111110011001010100111010000001
10111110000111001011010001001100
10111110101011100110001011011110
10111110000001001111010011000001
10111101110000111110100100111101
10111101110100101110001111001101
10111110100000001111110000100100
10111110100111111010101100000101
10111101100000000100110001111000
00111110010000111011010001011000
00111111001111000100010000011010
10111110100000110100110000010010
00111110011010101100011010111001
10111101101100000100100111101000
00111110011111011011001111010110
10111110110100101010010101010001
10111110101101011001001001111101
00111110100100111111100110110100
10111101000001011100010000000001
10111110101101001001001101010111
10111111010011001010100011010100
10111110001100110001001101101010
10111110110001011001011001101111
10111110110101110011101010101001
00111111000010010111011000100010
00111101100000100001100111110000
10111110100000110001110100101111
10111110110010000011110111001000
10111101011000011101100001011111
00111100010100111010011111111001
00111101110111011100101110111111
10111111000001000111010100000001
00111111011101110001010000001100
10111110110000000010010100100111
10111101000010110011110110111001
00111110001100000011111000001110
10111110100100110001101110010110
10111110101010101110111001011000
10111111000010001000100110011000
10111110011111001111011101011010
00111101100000011010111001110111
10111101001101010101000010000110
10111101011100001111101011011101
00111110000100101011001010011000
10111110011111011101011111101000
10111110100111001000111101001110
00111111000011101001100111011100
10111111001010100000101111010000
10111110011100000111101011010010
00111110100111011011101010110101
00111110111001010110011100000001
10111110100000010100100011010100
00111111000110100100001010101111
10111110100100110010110000110111
00111111000011011001101010101100
10111111011110011010100011110110
00111110000000111000111000111100
00111111010000001010101101001010
10111110001101101000010100010011
10111110001011101100101000010010
00111100110101101100110101000000
00111111001000011100101100100011
10111110001001100111111111001100
00111100011010100111011010000110
00111101101001011001100010010001
10111101000111100101110100101001
00111101010110110101111101001000
00111110100101101100011101001011
10111110101110100101010010100101
10111011001110010100100111101110
00111100000110011111101001001111
10111111000011011100011000110111
10111111010010100100111110001011
10111110011110101010001001101110
10111110111110010011001111100100
00111101001101110111011000000101
00111110011001101110111001011111
00111101101011011111101010001110
10111110001011001001011000010110
10111110010010011000100100000010
00111101010101001101001111101111
00111101110011100010010000010010
00111110001011001101011100100111
10111111000010000111111000111111
00111111000100010111111110111100
00111110000001110101001101001111
00111101101000011111011100111011
00111110000101010101111001000101
00111110101011101011111110100000
00111110011010111001100100110100
10111110111010000110111100100001
00111110110100110100011010001010
10111110101011010111100000110011
10111010001100000010011111110010
10111110111010000001001000011100
10111110000111110100111101011110
10111110101101101001001101010111
00111110101110001011101001001001
00111110100001101011000110110111
10111111001110000111011100001111
10111110000001001111000111110100
10111110001101010001001001100110
00111110101000101100000010100101
10111110111011010111101100001111
10111101100100010001010011111111
00111111100001100000001010110110
00111110111010001001000011101000
00111110000110011011001111110001
10111111000011110110110101110011
00111101011101000000010101110101
10111110111000000101001001010010
10111110000110111110000110010101
00111110010100010100011000010100
00111011111100010011111101110011
10111110011111110101111100001000
10111111000100011010110110110101
00111110001110001100011110010100
00111100101100100010100001110010
00111111000110100000000110100100
00111110101011111111000111000010
10111110111000111100000010010000
00111101101111111010011000110010
10111110110101111010000111011011
00111110011111000100010111111101
00111101111000010111100000011001
10111110111101110101111100111100
00111110101000001101011111101010
10111110001000000101000000110011
10111110001010010101101110010011
00111110100011000110110101101111
00111101011100101010011100100011
00111110101011101001011011011111
10111110100011010111001001010011
00111110000100001100110011001111
10111100110110101011110001000010
00111110010000010000000010010011
10111110101110110011011001011101
00111100010111000010000000011001
10111110010100101011110100001101
00111110101110001010011110110001
00111110101100101111110010110000
00111101101100100111111110010100
00111110010101000101010011011000
00111101001001110100110010001000
00111110001011001101000101101111
00111110100000100010011011010110
00111110100000101000110010000000
10111110001001001001100100000011
00111110111001011000000000011100
00111100111011000101100011011000
10111111000001111100011111001110
10111110111110111010100111111000
00111110001011000100100111000010
10111111010101010100001011010001
10111110010111001011100000101101
10111111010001100000000011110111
10111111011000010111000101101000
00111110110010110000001110000111
00111110111111111110011001000000
00111110010101001011001101110001
10111110010001101100101011001001
10111101110100011010100101101110
00111110111111001100000010010100
00111110100111100011010101111111
10111110110001100010101011100001
00111111000100101010111100000111
10111101110000111010100011011011
10111110000101111111111110100101
10111110100001111001011011000111
00111110110010101110101110001001
10111111001100010011100010000011
10111101110011010000100011000011
00111110100111000111011110010101
10111110001101110001101110001100
10111100000111100110011110000011
10111111000000110110100110010101
10111110100011000000101101100010
00111110100011000000001010010111
10111111001010111011010000100110
10111110010111001111101000000001
00111110101111010001101011000001
00111101010000101010111010001011
10111111001110101001101100101000
10111110111111000000101010010110
10111110010010010000111110011001
00111110011011001001111011110010
10111110001001110101000101101110
10111110000001001010001011001111
00111110010000000010110010001010
00111110111100001010011011110100
10111101110011100010100000100111
00111111001111000011001111000110
10111110100010101111111001111001
10111101010101100111100100010001
00111110011010101011000100101110
00111110010111100011101011010111
00111111000000000100011111101100
00111110100110000100011001001001
10111110010100000110001001001111
10111101111111001101001000010101
00111110010100001000101111110111
10111101101001011101111000000101
10111110100011100011011110111000
00111111001110001110111110001100
10111110101111011110110000110111
10111110111001111010111111100101
10111110111100100101011011111010
10111110101011100110010011101001
00111110100101000001111110111110
00111111000101100000101011011000
10111101001101000101001100001100
10111101100011010010010011000010
10111111001000100100010001010000
00111110111000000000000110011010
10111101001101010000011110001011
00111101100111011010100100011011
00111110100100101100111000110100
10111110110001101100101001101010
00111110101010101100101011110001
00111111001001100111010100100101
00111111000001100100111110100100
10111101111110110101011100110110
00111110100110111011011111011101
00111101101011100100010100111110
10111110100001100100101001010010
00111110001001001001110101001011
00111110100110010010110011110111
10111110111101100010001001010011
00111101011101111001101001000010
10111110110111100010111101101111
10111110010100011100010111001111
00111101100010110000101010001001
00111110111101100001110000110110
00111101110000001101001011001110
00111110001101001101110111001010
00111110101100001000101100110001
10111110011111000101011111111100
00111110100111011011010000111011
10111110100011100000001100001100
10111110111000011000101010000001
10111110101000000100100001111110
10111110000101101010011010111100
00111110100111101111101011110110
10111101010011111011010110001110
10111111010010000000001001100101
10111110111011110010010100111001
10111110111111100010111000011000
10111101101111111010111001010110
10111110100011110010111101011111
00111110100001101110010001001110
00111111100000000000001000011110
00111110100010010111010110110001
00111110101101010100110111000011
10111110010111101111100110010000
10111111000001111101001101101111
10111101110100001111111111011001
00111110101100110101010110010110
00111111010101001001110001110010
00111110100101000110010011111110
00111101100000001001110111100110
10111101100101001110000001101001
10111110101000101101010111010011
00111110100011101001001000100100
10111110101100000000111101110100
00111110111100111010100110001001
00111111001001110100101010101000
10111110000100000111111001010111
00111101111111110110110100000101
10111110101111100010110100101100
00111110011011011110010101111010
10111100111010000110000001011001
00111100110111010000101010111011
10111110110011001100010011011110
00111100001111111111111010101001
10111101111001000000001110100001
00111110000111000000011011110000
10111110101001110010010111111111
10111110010010000010111011110000
10111101101011111100001011011011
00111110001101011001001011110010
10111111001001101111110001011100
10111111000000010110101001000100
10111110101100100000101110000111
10111110100101010111000011011011
10111110101111011100001110000001
00111111010010000100100110100110
10111111011011111100101011010110
00111101100011100110100010011111
00111100011001011111011000110001
00111111010011110111100111101011
00111110010010010110100100010110
00111101111100010101110111000000
00111111011110111111101101100110
10111110100000000101011110001110
00111110111001010011110011000000
00111111001010000110011101000110
00111110000101011110111101101001
00111111000010110100100110001000
00111101110011101000000111101001
10111110101001110101110011011110
10111110111100100110010011100111
00111110001001101000111001101001
10111110011011010101100100010000
10111111000000010001111001010011
00111101100111110000000001111100
00111110101000011000010110011010
00111110000100110111100010100000
10111101101111010101000010100010
00111110101000110111001000001001
00111101111011011100000111011010
00111101001111010111010100101011
10111110011111001100000011000000
00111110011110110000101010110011
00111111000011000001111000100001
10111110110011011001100111101001
00111110110110011111010011110111
10111110111101001111111100110111
10111011010001000001110111001001
10111110101001010000010101111010
00111110101011101011001000001001
10111110011101100111000111100010
10111110011000001011001110100101
10111110010111001111011000011101
10111110011001110100000101111101
00111110000101000001000100110111
10111110000001100001011111110111
00111110101110000010001010011011
00111110000111000010111000100100
10111110001011011001001001011000
00111110110010010000000101100100
00111101000111100011111100100010
00111110111101011110100000100100
10111111000111100111011001010101
10111110011111001100011111110011
10111100110001101111100110101101
00111111000001010010011100110011
10111101100111000110110001001000
00111111010000100100100001010101
00111101100111010100000010000010
10111111000111000111010111111001
00111110000110100000101100001100
00111110001111101101010011111110
00111101010101100000101110100001
10111110110110010011011111000011
10111110110011010110000111101000
00111110100110001010100101100111
10111110110001100010101110100100
00111110100000111000010100000010
10111110000010011010001000010101
00111110001100001111111110101011
10111111000000011110001101000011
00111100111100101000011011110001
00111111001011100110000011010110
00111110011010110111111011001000
10111110100100011101000010100101
10111110101000100010110101010011
10111111000101110010110010010010
00111101100110100000101001111111
00111110000100000011001010001101
10111111010001111100100100001011
10111110010000111110100001111100
10111110001010010101110000011110
10111101110010111001101011011011
00111110100101111100111100101101
10111110110001001110111110010000
00111110100001110010000111110011
10111110101011100110111100101100
10111101110110101111010010110010
00111110001101010010110010001000
00111110111010000011111001001111
00111111001011101101101001010011
10111100110010011110010100111110
10111110101000011011111000001001
10111110001001011011001100001111
00111111000001101101100100000100
00111111000011101100010001011010
10111101100000101110111000101101
00111101000010001100001010110100
00111110000101010100100100111011
10111111001001110100001100110101
00111101010110101001010010110011
10111110010000010100110011100110
10111101000111101000111110100100
00111100100000101001011111110110
00111110110000111010101000110001
10111111001000011101111110100010
10111110010000101010001011101000
10111110101101110110110110100100
10111101000010101001010011000110
00111110110100111011100100000011
00111111000000001011111111000000
00111110100101001110011110110000
00111101101010111011001110110110
10111110100100100111111011000001
10111111000001000110010111011101
00111110101001011111000100010010
10111110000111011011100101010011
00111110001110001110100101010100
10111110100011011101101100101010
10111101101001110010000001011110
10111111000001011101110101000101
10111101111001010010101010000011
00111110100000010100111001011110
10111111000000000101110010001110
00111100110100110001010111111000
00111110100111111100100011101100
00111110110001101100110010111010
00111101101101000100001110001100
10111101101000010100111010011100
00111111010010001110111100011001
00111101101111100011110111100111
00111110110010110010000010000010
00111101000001001101111000010011
10111110100100110101100100010101
10111111000010100001000001110000
10111110011110101011111010110111
00111111011110101100100011001000
00111110110110010010001010010000
10111110010111000011100000010110
10111101110110101111110010101000
10111110100100000101110101110011
00111110011000100011010000100111
00111111000110100001010000101000
10111110001110001000000101010111
00111110100010001011101010101010
10111110101110001110101011001010
00111110011101001100111001011011
00111111010101100101100001111001
00111110100000110000101010111001
10111111001011011110010100000100
10111101001101111101000100010001
00111110011100000100100111010010
10111110100110110011011111101001
00111101000100010100011010101011
00111101110100011101101110010000
10111101001000101100001110101111
10111111001011001001110110000110
00111111001011111000001100111100
00111110101011111000011000000111
10111110101010101010111101001111
00111101110100011111111101111000
00111110001000010110111111111010
10111110000001000111010111110101
10111110000001000000001000001011
00111101100110110000001010111101
00111101001011111000111110000110
00111110100001110000000111110010
00111110101101001111101101110010
10111110001000000101010011111011
10111110101001011111001010001101
00111111001100011010000111011101
10111111001010101010010100011010
10111110001100100011010000011110
00111110100101100100001101111100
00111110110000010001110111100110
00111101001000110000111000101011
00111110110101011111010110111001
10111110010100101111110110000100
10111111000111110101001101000011
10111100101100010110000101010011
10111110000010010110111100111011
00111101010101001011011110011111
10111101010111111110001101011101
00111110110010100011010000010001
10111110010001001101110000111000
10111110100101111100101100011111
10111111010011110101110101101000
10111110010001111001010011000101
00111100100111011110011111000011
00111111011111100111000011110101
10111110100001101100011110111001
10111110010111111001011001010110
00111100110101001101110110100010
00111110100001000101110010101010
10111110100100001010111011101100
10111110110111100101011001001011
00111111001111001010100010010001
10111010111011101100011001101110
10111110111000110101011100010110
00111110100101000110101110010000
00111110110111001111000010001011
00111110110111101110100000011100
00111101011011011000010000110101
10111110000111111001111111100011
00111101100011010011110110001011
00111100011011010100111101101000
10111111000111101011101000011000
00111111000100101001011101101000
00111110111100001001011011001010
10111110110011010001100001110001
00111111001111011110101101010011
00111110101000100111100101010010
00111101101111011111000101000111
10111110010011111010001101100001
10111101100001111111110100011010
10111111001110110000101101011111
10111110111000001101110001101101
00111101100000000110010000101000
10111011001101101110010010001001
00111110000101010101111001001111
00111101100000000111100101000001
10111110010111001111101011000111
00111110111111101011111011110100
00111111001001010100001000001111
00111110110010010001100001010110
10111110111000001101100111010001
00111110111111110111000111011100
10111101110010100001111000001010
10111101100010001111101111011001
10111111001000100001001110111010
00111110111111010010100001001010
00111110101100000110001000110111
10111101011001111100100011011101
00111101110010001000010101100110
10111101011011100000110010100100
10111011101110000011010010110011