10111110001110101011000010100010
10111111011011101110011001110111
10111110110010000000000011011001
00111110101001101110000001111000
10111111000110110100001110011001
00111101001011110111100000111011
10111101100100000100010111111011
00111101110100001100111111000101
00111110011111100110001011010010
10111111001000000000111010100111
10111110101011011001101101011110
10111110111100111100001011011010
00111110011110011101100110110001
00111110011110101100010000100010
00111110100110111000101010000011
00111111001110011110110000011110
00111110110011111101100100010110
00111110110010111100001011010001
10111101111011110010011000110000
10111111010111100101011001000011
00111101001010111100101010100011
10111110110101010110010000101000
00111101101001010111100111010000
10111111000101000101111110011001
00111110101101111001101110010101
00111110100011001011011010001111
10111110100101111011110010011111
00111110101101101000101111111000
10111111001000010101010001110010
10111110100101111001100001111000
10111110011000101100000001001110
10111110011011100001100001010101
10111110110000110111111110010111
10111110101111001001111001110101
10111100111011010110000011011011
10111110101001111111100101010111
10111110111111001111110001001110
00111110101010100111010000011101
00111110110010101111000000011011
10111110110011011001110101001001
00111111000110001110001010101011
00111101100100110011110110101000
00111110000011010001100111100110
00111110111100011101100110011100
10111111000001100111010001001000
10111110100001001000101010001010
00111101101001001010011111100111
00111100001101111010010101110001
10111101110100101100110010100011
10111110100011011000010000011101
00111111000010110110110100100010
00111110001000100111000101001111
00111110101001010110101101100010
00111111010011000010100000111101
00111101111100011010100001100011
00111110100100101011101011111101
00111110000110101010111001000010
00111101100011111010010101000110
10111101111011010111001011100011
10111110011010110001100110100101
10111110100011101101111011100100
10111111011011010100011110100101
10111110111000011101011001101100
10111100000111011110110010101001
00111110111010011101111001100100
10111101100100010100010100110101
00111111000110010101001010001011
10111011010000101001110001011001
00111011001110001110110001110001
00111111000011110100111100111100
10111111000000101101100000111110
10111110110101000001001011111100
10111101001110011010111100100011
00111110101011100000101011000111
10111101110101100101001010000010
00111110111111100000000101110100
10111101101110100101000000111100
00111111000000101010000001111001
00111110000100100101101101110110
10111111000010110101010101001111
10111111001111101110111010001101
00111110111001010000111110000010
00111110100010110000001110000101
00111110001011100100111011110001
00111111000001111111101111010001
00111110111011000011010010000001
00111110100110111110110110000101
00111110101010110101000101110100
10111110011100000100000100011100
00111110111000000101000110101011
10111110110100111001111001111111
00111110100100011111101100010110
00111110000011100100010101001010
10111111010000100011110010100010
10111110011011001001000010000101
00111110101010101000101111110001
10111110110010011010111001011111
00111101011100001111100010111011
00111111000101111000110000000010
00111110000101011100101000111110
00111111001111010100010101101110
10111101001000110011101001101101
00111111000001000100111011010001
00111111001100001110000001010100
10111110101010100001100000011010
10111101010010100110110001010001
00111101000110011001001001100011
10111010100001011100101100110010
10111110110110000100001010010010
00111110000010011010111110101100
10111111010011100010110000010001
00111101101011111001111000011100
10111101011101111011111110000000
00111110111001111000100101010010
00111110100111001001010111010001
10111110101100110010110101001111
00111110110100110001010011011100
00111101100010011111010111101011
00111111011011100101000010110010
00111110001111000110111111011100
10111110000000010111000101000101
00111110101110011000101100100100
00111111000110010101011001111111
00111110011001101110101110110011
00111101001010110000011010110100
00111110101000110011110000000000
10111101110010011011101100011101
00111111011100001001011100001000
10111110000011000010010001111011
00111100001000100010111010100000
00111110011110101101001001111111
10111110100101111001010010110100
10111110101010011110010111101011
10111110011111011010001111000100
10111110101111110101100110111000
00111110011011111110111110000001
00111110011101000001010001010010
00111110110000000101100011110011
00111110101100101110111011001111
10111101000101111111000101010100
00111110101010110110011100001001
00111110110011110111011101101000
10111101001111100111011000010010
00111111010000101101011111110100