00111110010111010111101010011111
10111100100101010000010001011010
10111101011110101111111100000000
10111110010000100100101110001110
00111111011111000010011011111010
00111110101101011100101101000111
10111110100100110101001100110001
10111111000111110010110100001101
10111110101010000101110011110000
00111110110000101000000100100100
00111011111111111101010010101001
10111111011110010110110101000111
10111110001110110000110100100101
10111101101101011010111000101101
10111110101001101100111010111100
00111110111010000110101100000111
00111110110111101011000000011000
00111110101011110000101001101010
00111110100111110001110111001001
00111111000100110101100001001110
00111110101001110001001000110100
00111111001100110000001010011001
10111101001100101000101101110011
00111110110010111100111001100001
00111111001101001111110000001111
10111110101011111010110110100010
10111110100100100111111110110111
10111101000001011001010111001101
00111110100000100001100111101000
10111110000001001000000100001100
00111110110100101111000000011111
10111110111110000111100000100110
00111100100010011011111111100011
10111110101100110101110001010001
10111111001100000101010001000000
10111110100110110110111001011110
00111101010010001111100010110110
10111111000101100110001010110000
10111110110010111001100101000101
10111110010100101110111001001000
10111110110000011011101011110100
00111101111110011011000101101100
10111110000110100111001001010100
00111111011000110101111101001100
10111110111001000100111000101010
10111110111011011110001100010100
00111101011011110010111000001010
00111110111000011011100111100011
00111110011111011100110100110011
00111111011110000111110000110110
10111101011100110010100011111000
00111110010110000010110111011010
00111110110010000000100001100000
10111101110000000010100011010001
00111111001000010101010100110000
00111110101001011101001001010001
10111111000010001100100111011111
10111110100001100111010101001000
00111110100111111101101101001101
00111110101100110000000111101110
10111110100000101000101000011111
10111111010001011010001100110000
00111111000101001000110000000001
00111110000000111000100110000100
10111101011110000010100000100100
00111110010110011011101100011011
10111110111010100100110001011100
00111100110001000101100101000011
10111111100111101100111001110000
10111101100000101110011101010100
00111101101010000001100110110000
00111111000100000000010100010010
10111110000111000110110101000000
10111111011000110001000100100001
00111011100001101001010011101011
00111101111111110011000110101010
10111110000101011111010101100101
00111110010101100010000100011010
00111111001101011110111000101000
10111110100000000110001101011011
10111101100010000101100001010100
00111111001010010000101000111100
00111111010010001010101101110110
10111110011100101010110010100011
00111110011010000000110100101000
00111101010110000110100000010011
00111110001100011001000011000100
10111111000010100001010101010011
00111110100100001011101100101011
10111101101111001101011001011100
00111110110000000000001010100011
10111111000010100111000101001011
00111110100110001011101010001010
10111110010000100010010011010000
10111101111110111101011110010011
00111111010001111010100111100110
00111111010001011101101101110010
10111101010001001011000101101010
10111111000111000001000111011000
00111111000000000110000101000010
10111110001001010011101100001011
10111110110000100111010100110011
00111110100111111001010011111000
10111110011111001001010111000001
10111110101100001010000000111010
00111110001011011110111100100100
10111110000010100100110000001010
10111110110000101100111011101010
10111111001000000111000011010011
00111111000110100100010110010100
00111101011100101010111101100010
00111110110100100110101101101101
10111111100000101101011100010101
00111011100110111000100000110010
10111111001101001001010100011001
10111110010110011111111110001111
00111101001000011010010111111011
10111110101010101100000000001111
00111100111001010101000111101000
00111110011110001011101010010111
00111110101110000000000111101100
00111110010000001011011101011110
10111110100000111101110001100110
10111110100100010110101110001011
10111110001001100110001010100001
00111111011010001100011101101001
00111100001001110010100010111111
10111111000001011011001000001100