00111110010011100010110101100000
10111101101010000011110001111011
10111101110101010010001111101011
10111110111011001111010000110010
10111101101011010110101110010001
10111110100101011010011100001111
10111101011010000011000110101010
00111110101100101101000011111111
00111101001010000110011001101000
10111110010111100100011001100101
10111110011001010111010011011111
10111111000000101101000111001010
00111110101101110100000110010110
00111111010010100100010110101111
00111111001111010011000011001001
00111111000011011011100010110101
10111110001111011000011011000010
10111111000000110011110010011110
10111110101000000000001010011111
10111111001010011000011010000100
10111011101001101100000101000000
10111100111001101001011101100010
00111111000101110110000111001001
00111110100111000011000110101010
00111100100110011101000111001100
00111110111101110000001110111000
00111011111110101000000100010001
10111110100100001101111011010100
10111111001110111100011110100101
00111110100011101000010111000011
10111110101010011010110001100101
00111110101001000101010000011001
00111110101110010101110100010100
10111110101110110100111110001010
00111110111010111111100100011010
00111110100010011111010011111001
10111111000010000111011001001101
00111110010010111010010011111100
10111110101011110011100000111111
00111110010000100111111011101111
00111110011011101010010111110101
00111101100000111110101011000101
00111111010100011110011111101010
00111111000000010001001110001111
00111111010011011000101010000000
10111101101110111011110101111111
10111110001111001100111101110001
00111110001011100110011111011100
00111111000011000000101000000000
00111110001010011100001010101010
00111111001100010000101001001001
00111111001100011011011100001011
00111110101011101100111110100010
00111110100011101111010011111111
00111110110100100010011100000111
10111100010101111100100110010000
10111110101101101011110101111100
00111110110100110100110010011110
00111101100111001011010100100101
00111101111100101011111010010000
10111110011110100100000001101111
00111110110111111111110100101000
00111110110000000010001110100001
00111110000000000010001111110000
10111110010110100111110011010111
00111110011000010011101100011010
00111110001001011100110010001101
00111100110010000001001100001101
10111111100000000111101001011001
00111110010000110100001111011110
10111110111001010010001100001101
10111110001010011101111011011101
00111110101001100000011011011101
00111111000010100001010101110101
10111110001111000111010101011011
10111110000010001111111111000100
00111110101000011000000101001110
10111110011100110010100101010111
10111110111000001000011101111010
10111100011011101101101000111000
00111101000011100100111111111011
00111110111001011010000001001000
10111111010011001000100110000111
10111100100000011100001110110011
10111101000111110001110111100111
10111101111011010010101010010100
00111110100000101011100000011001
10111110000001101000011000110000
00111110110000010000011000111001
10111101011000010010100111011010
10111110001101100101011011101110
10111110010100101101011101000000
10111111100001011010010000001110
00111110101011011000110000001111
10111111000000101000011001011000
00111101100110001111100100100101
10111110000010010110000010111001
00111111011011011100001011111101
10111100111100110000110111011100
10111110001001000101110110011011
10111110000101001000010010101010
10111110101100110101001110001010
00111110101111000010111101111101
10111110000011111011001110011011
10111110000110011010110000111110
10111111000110100101000101100111
10111110101100100000001011111101
10111110010111101011101010010110
00111110100110101001101010011101
00111110111001000100011101010001
10111110011100010111101110010001
00111110101110110011110001100100
10111110101010000000010101010000
10111110101011011101011011111000
00111110110001100011100010110110
10111110000010000010111000011000
00111110101111110000001010110011
00111111011001100011011000111001
00111111000110101110011100001101
00111110110100100110010111100111
10111110101010101101001111100101
00111100100000001000100101000100
10111110101100111101100100000010
00111110110000001101000010111010
00111110100010111110011000001111
10111110100010110010011110000001
00111110001001110000010011101000
10111111000010011111110010110111
00111110100001011101110000101010
00111110011011110110101010110000
00111110101101101101111110101111
00111110000110101010100111001000
10111101101010011011101111110110
00111110010001101110000111000010
10111110100110110000111100100011
00111111000100011011011100111010
10111111100000000111111000110000
00111110011010110001100110100011
00111110010111011000000111100101
10111110110110010110010111100010
10111101101100101001110001100101
00111101111001100010111001000111
10111101111111010101110100101001
10111111010110100000111010011101
10111110101010001010101100110000
10111111000000011010001001001010
00111110111100110111100111101111
00111101101110111001010101011001
10111100101001100110011111000001
10111101110001010101011010101111
10111110000111111000110011000100
10111101100101010000110101000010
10111110101010110111011110010101
10111111010110100101101000011000
10111111001000100000111011011001
10111110010111001111010001101000
00111110110111011001010001011000
00111110110100100110101101011111
00111110011111010110000010010111
10111110011011000100011101010110
10111111000011100110101011101011
10111110101101001100111101101110
10111110001011010000000011010101
10111110100011110011010100101101
00111111000100110111101010110001
00111101111110001011001000111100
00111110001111001111110011110101
00111111000001101011100110011011
00111110010100011001110010000001
10111110101001001111010101101110
00111111010010000100110100000010
10111110101001110000010000100000
00111101100111010111110110011100
00111101110010110000001110010001
10111111000001100000111001100110
00111110000100010100000111111011
00111111001100101001010100101001
00111111001101100011101100000111
00111101111010011000110110011001
00111110111101110101001010010100
00111011101110010111101000111011
10111110110011011000011100100011
10111101110111101110101001101001
10111111011000101100101010011111
00111110111001110001111011101111
10111101100001110011110101000110
00111110000100000001110101100011
00111101001001001110111011111101
10111110000010111110000010010101
00111110100111011111010111100000
10111110100110111010110110010110
10111110001111101001011101101000
10111111000100101010010011000110
10111111000000110001111011001110
10111110000111100001011110010001
00111110010101110111101011100100
10111111000000101100010000011010
00111110010111111110011010100100
10111111010001101111011101110110
10111110110000110011111000111000
00111110010111111001010000011110
00111110100000011100101111111000
10111110001011100001110010000011
00111110000110101111100000010100
10111110101000110101100100010011
10111100100111000001100011101010
10111101001001100011100111000000
10111111000101001001011000100011
00111101001001001001110000010111
10111110100000110110001010001000
10111110101100110000101001101010
00111110101000100111101100101000
10111101101001001111000101100111
00111111001001101101100000110010
10111110000110000100111101000110
00111110111000110011111001101011
00111111001010100111101000010000
10111110010011001100000111111111
10111110001111011001011011111111
00111111010001000110101111100001
10111110000001100100001010100011
00111101110000001110101111110000
00111110010110000101111011111111
10111110110111111101001001010001
10111101110110011110110110011000
00111110001100000110101100101110
10111110110001100111111101000100
10111110011111010010111100000101
00111110000001011001111000101100
10111110000111011110011001101100
10111110101110110000111011100100
10111110110111011110000001001011
10111111000000000001111110111011
10111111001100100010111110100000
10111101101001011100010111110011
10111111010000000000001001100101
10111101000010000010001000010101
10111111010001000000011011100100
10111110100111101011100000111101
10111011111010000101000000100011
10111111010010011000111011010010
10111110010001101010001110100111
10111110101100011001010010010011
10111111001010101000101110101010
10111110111001010000011000110010
00111110111000011001100001000101
10111101100110001011011100111110
10111101000101111110010100100011
10111110110001100100000101110101
10111110001001010111010011111100
00111110110110111011100100010110
10111110100100000011110110000100
00111110100011010000110001010101
10111101010011010110111000101100
00111110000111010100010010101100
00111101100000100010110101010000