10111110010000001101101100110011
00111110100001101000111101101000
10111110101001110110011100001000
00111110101011101010100100001011
10111101010100001100001100010010
00111110101000001000000011100000
00111101000000000110001110110110
10111110001001010101011111010111
00111100111110000010110011101110
10111101100110010110101011110110
10111111000110011100110110001101
10111110110001100000000000101110
00111111010011010101101110110000
10111111000111001100001011101111
10111101011110101011101001010000
10111110100111101111101001110111
00111110110100001111010101001011
10111100110110110111100011010101
10111110011000101110111101110011
10111110000111101101010101100001
00111110000100111001100111001000
00111111000010101010110011101111
00111111001111101000110001011101
00111111000011110100000000101010
10111110111010010000001110010101
10111110000110111010100111110110
00111110001000101010101001001100
00111110111100000000111000010000
10111110111101111011010101010001
10111110101100111100010010101000
00111110110101010010001011010010
10111100010111111011111100001000
10111111001000110110110111110001
10111110101110101100000011011100
00111111001001111101010010001000
10111110000011010100011000110110
10111101010111010000010110110100
00111110000000110110100100100001
10111110001010111011010100000110
00111111000100111000101110100001
00111111001011110001101001110111
00111101111101110011111011011111
00111100001110111101000100010111
10111110110010100011000100010000
00111110100010001110011110110011
10111110111111000101111001011001
10111110001111101001000011000111
10111101100000110111111111000010
00111101110011100011001011010111
00111101000000001010000000110110
00111101111101111110011110001110
10111110010101001011100010011101
00111101100000011101000111101000
00111111000110110110000101110010
10111101101010101111100001011101
10111111010010111111110001101111
00111011110110100101111001111001
00111110110101011101100101111000
00111111000001100110100011011110
10111110101011100000111111110010
10111110110010101111000011101000
10111110100110000100110001001100
00111111000100001111011001111011
10111110111011111011000010001010
00111110101100000110001111000110
10111101110011001001000101100111
00111110110110011011010111001100
00111111011101010011111011011111
10111111000001100100110101011010
00111101100000010100001100001111
00111101000100111011011100101101
10111110101000010011011110111011
10111101110100010010001101000000
10111110111010001011010101001000
10111110100100111101001001000101
00111111000010110000100011100010
10111110110010110100010001001011
00111110100111100011111000111010
10111101110011011011010011001100
10111101110100101010111010000101
10111111001101101011011100010101
00111110110100100110010000111110
00111110110100110100000010110111
10111100100011101011110001110011
10111110100001001100101010011111
10111100001100011000101000010101
10111111000011111100000101100010
00111111000001100001011010110100
10111110001001011111111001101110
00111110100010011100110110101001
10111111000110101110110110111010
00111101100010000001011110000001
00111110111101101000000110110000
00111101100010110110010000001001
10111110110010011111010011111001
00111110101100001110101000110110
00111110110111000110000100100001
10111110011010001101110011111100
10111110111011011111011110001011
00111110100011011101000100011010
10111111000001010101011000110000
00111110110110100011100100100110
00111100110111111100000001101001
00111110111110000000010001101101
10111110100110001111011110001100
00111111000101110011000101000111
00111101011110110001101011011100
00111110100101011101100100010101
00111110010111000110111010110111
00111111000101111101010011110001
00111110001100000011100111010101
10111110101001101101000011000111
00111110011000000010001000110011
00111110111110010001001111101111
00111101100011010100101100110101
00111110111000011100111001001110
10111110110011010000011101011011
00111110111111001001000110111011
10111110011101111111001100110101
10111110110001101001111110100011
10111110011000100101010101101100
00111110011101111100110010111101
10111101000110010010011000001100
00111110111110111100100110011011
00111111011100011001001110001111
10111101101011010110011011000101
10111110011100101100010010110010
10111110001110110010010110100011
00111101101011101000010100101011
10111111000011100100010010110010
10111111101000011101001010010010
10111110100000010100100001101111
00111110001000111011010111000001
00111110110010111111101011011001
10111110101010010111000101110111
00111110010111010011100100110111
10111101111111000100111111110000
10111110000011111111100011000001
10111110011011011111111010111000
10111110010000100000100110010001
00111110100100010110000100000110
10111110100001001000001111000110
00111110110100110110110001011111
10111110111010111010111101011011
10111110111101010011110000000001
10111111000010011111110111100100
10111101011110000001100000001101
10111101010100110111011110010001
00111111001000000000010101011010
10111110001010110101010010111011
00111101100001001011111011000010
10111011110011111110100111101111
00111111001110011011010100010110
00111111010101010100101000101111
00111110000110100100001100100101
00111110011001100111011000011110
10111100000000000110100010100011
00111101111100100011110111110110
00111110111110111001110000001100
00111110010110101000001110110111
00111110110100001011101101001101
00111110110111001010101011100001
10111110101110000011100000010100
10111111001010111001001110000000
00111101000111100001011010110000
10111101101110100100011100111101
00111110100101001010111111110010
10111110011011011111111111001001
10111111000110010001011000100101
00111110110110111001011100000100
00111101110100000100000011101001
10111111000101110011001001010101
10111110010010001101000011000100
10111110111011110011111111100101
10111110101110010010000101110100
00111110010011011001101111011001
00111110011001111111110000100011
00111111010000101010000100110101
10111110110001000011011110010110
10111110100110111111000100001011
00111110011000100101011111001100
00111101100111011010111011110010
10111111010110000101100110101010
10111110001000111001110000011110
00111101011001001000011011111101
10111101001100000011111110010001
10111110101100110011100111011101
10111110011001001001100011100111
00111101100100110011101111000111
10111110111101111011101001111001
10111111000011110001100010110100
10111110101100000001000110001001
10111110110001011001000101101010
00111101011010100010010011011010
10111110101000110011111001010011
10111110110110101011001000100001
00111101110111110011011111101001
00111110010000110110100111110111
00111101100110011010001110001110
10111110110111010001010010001110
00111111000111101001111001101110
10111110001010010010001001110111
00111110001100001001010001011101
00111111000111011000100110100100
00111110000100101100111100101001
10111111001000101011000000110010
10111110011100001010000101111000
00111111001001000110110011111001
10111111000001000000101110100101
10111111000100101111011110000101
10111110100010011101001100101100
00111110110100011111100111011011
00111110000100011000111100001010
10111111000101101011100000110010
00111110100010100111001110101111
10111110110111010111101111101111
10111101111100100001000111010011
10111111010000010011101110011101
00111110001001110000011111101110
00111110110100101110001010111000
00111011100100110100011011001011
10111110100000101101010000001101
00111101011101111010101001110010
10111101010011101011110100011110
10111110110110101000011011001010
00111100010100100000000111010000
00111110000101111100110101101010
10111101100111100011101110110000
00111101000010000000011111110011
10111110100010110010110110001011
10111110000110111101110101011010
10111111011110100010000110110011
00111110101111100111001010011100
10111110100110110010110101100111
00111110101011001110001111010010
10111101010010001110101101000011
10111111011010101011110000110100
10111110000100101001101110000011
00111100100111011110111100101100
10111110001110011101111101010110
00111110001101101011110111111000
10111101101100100001010001001000
10111110100100101111111100011001
10111110000111000011000111111001
00111111001010010101100000011011
10111110110010001011111100011010
10111101110100101101001101111001
00111110111001101001110011111011
10111101101110000110000011010000
10111111000010000111110111010100
00111111010000011110100011010111
00111101101111000011100001100010
00111110010001100000011110000101
00111111010010000101010110100001
10111100011010110100010010101011
00111101010101100101100010010001
00111110100011010000010110111000
00111100011000100000001011100100
00111110010011110010110001010111
00111110111000001110000101100101
00111110010001011101000010000110
10111110101010110010111011011100
00111110100100110000011010111011
00111110010010010111111000011000
00111101001000111001010110111000
10111110001101110001010011001000
10111111000011110101100000011110
10111110000100000100100010111111
00111110110010100100110101111001
10111111000011111111110111010101
10111111100011110010001010100001
10111110100101000011001010111111
10111110101111011011101011111000
10111110100011011100011101110111
00111110100110110100000011110111
00111011111010000110101010101000
00111101110010110110100110000010
10111111000110010100011001000000
10111111000000111111010100000101
10111111000100011010100111111110
00111111000001001001001011110001
00111110110100111110111010100110
00111101000111111010010110000011
10111110001001001011010111001111
00111110001100101110101001011111
00111111001101010001110001110010
00111110010100010001111101110100
10111110011111010010110010111101
00111110001110110100010010101110
00111101101011000100111110110000
00111110111001111101000110101101
10111110111101100100000100101100
00111110101011101001101001001100
00111110110000010110001101000000
00111110100010111110010110011110
10111110111011010010110011000101
00111101111001111111111000010001
00111110110000110001101010100001
00111110100100111100110111101101
10111101111001001011010001110110
00111110011011001010010000000010
00111111001001011101110110110001
00111110101010001110111000011001
00111111001010011111100000011101
10111111000100001010001010011110
10111110010000000011001100111000
10111110000101100101010110001111
10111110100001101110111111000110
10111110010010001110011111010101
10111110010111100000110000110100
00111110100010000111000100011110
00111110101111100011000101011101
00111100111011001101101101111011
00111111011001110011011111011110
00111110011011100100110110011001
10111111010011100000000011010011
10111110000010010101110010100010
00111100110010000011101001111101
00111110111010001000010111110100
00111111000010111010000011111101
00111110111001011000100110101001
00111101110101100001111100011111
10111100011100101101001010100001
00111111000000100000001011011101
10111110001000110100011101100010
00111111000111110111101010110011
10111101010110100011010010000111
00111010010111110110001100010001
00111110000011000011101000111101
00111101100010000011110110010001
00111111010000100000100100111110
00111111000010000000011001110110
00111110111110001101001010111101
00111110110101010110111110011100
00111111000011100101001011000000
00111110100101001010100100110111
00111110001010011111111010010101
00111110100110111110011000100110
00111110111000100010111001110001
00111110010111111001011000101100
10111111000101110000101110001011
10111101001100001010100011111100
00111101101100101110101111110101
10111111001101001101110010111110
10111110011000111100110011110000
00111111000010001000001101001010
00111110110000111011010000101110
00111101000000011111101001001001
10111111001011111111001010101111
00111101010110000110111010100100
10111110111111100010001010000101
10111101111001011000010101011110
00111110001100100011100111001100
10111111010001101100111011001001
00111110111111100011101101100001
10111110110111000100100000010001
00111110011101000101001110100110
10111110011111111011000101000011
10111101001000111100001011110111
10111110010000000001001111000001
10111110100001011010101101010000
00111110101101101000111001101101
00111100101001101010101010101000
00111110000100010011110011111000
10111111010010101000110111111100
10111101111111001001111010101111
10111110100101001000010111111110
10111110000100101011110101111001
10111110010000101001000101001100
10111100101011001011100101001000
10111111000000101000001011011101
10111111000111011111011100000101
00111111011011000000001000011110
00111110101010001110011011010011
00111011001001011111110011011001
00111110100010100011110100010100
00111110100011110101110110011100
10111110111001011100110000110010
10111110110000000000110100101100
10111110100000110100100110010111
10111110010011101110011011100111
00111110010001001101101000001110
00111110010001101101001011100001
10111110111011100010101010000100
00111110110110101001001110101110
10111111000100000101111111100111
00111110000011011001101110100100
10111111010001110011110111001111
00111110011001001000000101111101
00111101110110110010000001101100
00111110101111000111001100101111
10111111010011001010110000011110
00111110001001010101110100001100
10111111000001000011001010101101
00111101111000010101111000000010
10111101100110101111000001011000
10111110011100010001101001110001
10111101100101110010110100101111
00111110000010111100101001000110
10111101100101011001011101111001
00111110100101010101100001111001
10111111000111100111011000011001
10111110111100011010100011110100
00111110100001101111110011100111
10111110101100011100001010111000
10111110110100001101000001001101
00111111000110110100101001111001
10111101001101100010010001011010
10111110001111111001001111100101
10111110000111010010101100011000
00111110110011100000100011010000
10111110111100110101100001110010
10111110110011001100010111010000
10111110110110011100001100100101
00111110011000110111100001000010
10111110101110101001011000010010
10111101010010110111011010001001
10111110100011110100001101110100
00111110111101101100001110011000
10111111000010111011100110001010
00111110000111011010000011000001
00111110011000000010100101010000
00111111000010001001011111100000
10111110101001110010111111111100
00111110011000011100100101101101
10111110011001000010000010001111
10111111000000010101010100011100
00111110101001010010100000110110
10111101100010011110111001111011
10111111001000100100001000100001
00111110011001100101001101011111
10111111000011111010110011111001
10111110000110111011001111110100
10111110011010100111101001101010
10111110110000010110010010110100
10111110100000000000001101010110
00111011101000101011010111010010
10111111010110100101000000101000
10111110110111110100110011101010
10111111000011110000101011000101
10111110100001010000111110011010
10111110100100110110110101001110
10111110101000010110111111000000
10111111000100100010101001110010
00111110111001011101001011100000
00111110000010001001110010000001
00111100110101111001010110100111
00111110011101000111010110111010
10111100110001111011001100001110
00111110111110110000111100010010
00111100110101111100111101001110
00111110100000110011110101000011
10111101011010111100101111000000
00111111011011111101001111011100
10111101000011010101110010101111
00111110101010111000011101011000
10111110100011011010111100111111
00111110001011101111110111110111
00111101100011111011100111011101
10111111010000001011010110110101
00111110100001111101110001010110
00111110111011010011010001011111
00111111000001100100001000000010
00111100011010100010001010000000
00111110101101100100111111011101
00111110111110010000011010100011
10111101101100110110010000011000
00111110011111101100111101001100
10111111000001001001000011111101
10111111000101100010111100001101
00111110100111111011101010101100
00111110101101110001100110011010
10111111000011001111100000101100
10111110101011100111111000010000
00111101000000100111100001101010
00111101111001101101101110000110
00111110001010010101100100101110
10111110101011110101010011110010
10111111001011011000111000011110
10111100011010000101000010101010
10111111001010001111010110111001
00111110100000001001111101011000
00111110110110001100101100000101
00111110100011100101101010000000
10111110010000101001000010110110
00111110111100101000100000010001
00111110100111111011001011000001
10111011000010110100010000101011
10111111000011001000011111010111
00111110100011111111100001011011
10111111000010111100001000111100
10111101100101011000101110101000
00111110011011100110111111101110
10111111000110101100011101010101
10111110010110000011101111000110
00111101111011001110010011111111
00111101100101001011111011011100
00111110111001010101101000110000
00111110000000110011001000011000
10111111000111001000000111001101
00111111001010101000111010010010
10111110101001011111010011001111
10111110110110001110100111001110
10111111001010110111111100100111
10111101010111001110010111001010
10111101111000011010011101110100
10111110100010100111010001100001
10111111001101001001110010010101
10111101011011001001010111000101
10111110011110011101111111110100
00111110110101000010010100010000
10111110010000101001110011110010