10111101101110010001100010000100
10111110011101100000101000000011
00111110010011010111101101000001
00111110001101000100110100110010
10111110100011001000110001010011
10111101110100000100111101101001
00111101110111100010110011011000
10111110111001111011101110110101
10111110110010011010100111001111
10111101100010011100100110100101
10111111000011000011000001101011
00111110010100001010010000110111
00111101001100001110111110100001
00111110011101011111000000001001
10111101110101001011110000000100
10111110011101001001100010110010
10111110011001000000000101100110
00111111010000111010000100001011
10111111011000000111101000011000
10111111000011011101110000000111
10111101011011100010100111001111
10111111010110000011101111001011
00111111000001111110001100011001
00111101001110101101001000111111
00111110110001111011100010000010
10111110010100111010111110010000
10111101000001001100101010010101
00111110001001010001110011110001
10111110000101111011001100101010
10111111000111000000001111111100
00111110001010011110111000011000
00111101100011011101010010100110
00111111000010101110110001000101
00111110101011111100001000101110
00111110111010110110010100101111
10111110100001110010010001000101
00111101100110001111000110110100
10111110100101010000100000000101
00111110111010101011110011001100
10111110101111111011101110110000
00111100001111010001100000010011
10111100011100001110010000100001
10111101111011111100000111110111
10111100101110010100100110011000
10111110100000101110001011101100
10111110101110100001110100111010
10111110100111101010011010101101
00111110110110100011110111111011
10111101011100010110100010000111
10111110011101110000110110000100
10111110111101000111011111111110
00111111001100101110110001100110
00111110101000110100001100101001
10111110101101000001010000110011
10111110110000001011110101110010
10111110111000001100101100000000
00111110010001001111001100000101
10111111001011110110011100010010
10111110111100010010111000101011
10111100110100010100010100110011
00111110000100011010001111100100
10111110100000001111101001001101
10111110100001010001001001001110
10111111010001000000100110000100
00111110110010000011110101011011
10111101000011110100101101111001
00111110101100010100111001010000
00111100110010000110011010100110
10111110010110011101110100100010
00111110100010110111000000001010
00111110100001110111000010001111
00111100110100100100110110011110
00111011100111011101111010001000
10111110010010011110010000100001
00111111000010001100001100011000
00111110110110100100011011101010
10111110100000010001101000100000
00111100111111111001001000101010
00111110001000110111011111011100
00111110110110100001011000010111
00111110010010110101000111101001
10111111000110001011000110010000
10111110001101100001100100101110
00111110001101111000001000110001
00111110000010001000111110110001
10111110111110001001011010110110
10111110001101011111000111111011
10111110011000011110010100101011
10111110001100010101000111000001
00111110011110100011111000010110
10111111001101010101100111110001
10111111000101010101100100000000
00111110111111011011101110100111
10111110011011100110011111110010
00111111001111110011100111110000
10111110011111001101001000010000
10111110000001110010000000001001
10111110011100110000110110100111
00111101011100000001001010100101
00111100111010000000001010110101
10111111001000110000101001110000
10111110011101100000100101001110
00111110110001100110100100100110
10111111000111001111001011011010
10111110111000000000100011010010
10111111000000001100011000100111
00111110110001100010101010010100
10111101110100101111001000000000
00111110000111101101110000011010
00111110011011001101011000010001
00111111000100111001100000101010
00111100010110000011101010001000
10111111000010110101001111100111
10111110011011111100000110010110
00111110011001111000000110110011
10111110011100100010111001010110
00111110110000101101110001010111
10111110000110001010111110111000
00111110010111111011101001111100
00111110000011100001011000000110
00111110100001110110110011001000
10111110100110101000111110101010
10111111000100101100100011010111
10111111001001110010001101111110
10111110110111011110011000111000
00111101110000011111100110011000
00111110001001010110010100011100
10111111010111001101111101110001
10111110011111000000011011101001
00111110101010110011010101011011
10111110110000100010011000011100
00111111001000111100100000100110
10111101101001000000011000000111
00111101011000111011111010010001
00111101110001111000111100100101
10111110100111101101011001110000
10111110101010101100000111010011
00111101001101000010100010111000
00111110101001110100010111100000
00111101101110000110100101110011
10111111010000000000011110101001
00111110011110101101100101100001
00111101111001001110111100111000
10111111000101010100001101010010
10111101000100001001001111101001
00111110000100110011100001111001
10111000000010110110110110110100
10111110000011010000000101000111
10111110110101101101110110101100
10111110000001001011111111010011
00111110100111111001100100100010
00111110001011100011101101100101
00111111001011011100100010110111
00111111011001111110011110010010
00111110010110011100110111011100
10111110000100010010010010111011
10111111000100011001111001000001
10111111001100011000011111000000
00111110000100111101100001001111
10111011101001011010101110011011
10111111000110000011000010011101
00111110101110111010001010010000
10111111001011001010101001110110
00111101110011000011001011011110
00111101010000110100011001100001
10111110000101101001011111100100
10111111010000110101000110011000
10111110100111111101011001011110
10111101110101010110000011100001
10111111000000100010000010100000
10111101111010110011010000101100
00111110011001011110011010000000
00111110000010100100110101101100
00111101101001010110011001101010
00111110111101011000000101010000
10111111000101010010010100101010
10111110100111010011000111111011
10111110111011011000001101111111
10111110110011100011011100000100
10111110000100100000101101011001
10111101110101110011000000000010
00111110110001000100011110010100
00111110001111111000010110101010
10111111010001100001000010010110
10111110110011111100111011001000
10111110100010001001110100100101
00111110100000000101111001111110
10111101100101110001110111111001
00111110000000101101011000011111
00111110101011010101001110000111
10111110011011010000011010011111
10111110010011111110101011001100
10111110010001011110000011110101
10111110101100011101000011000111
10111110010001101000101110110111
10111110101010000011110000001100
10111110010100001011001011010110
00111101110101011001111101111110
00111110110000001001000100000111
10111110100110110110000111101011
00111110101011001001010100010000
10111111000111001100000010001101
10111110010010101110101100101110
00111101110110011001000110100100
10111111000010010000110010101110
10111110101001010110100000110100
00111101111100010001101011101010
10111110010110111100100010000100
10111110100100111101000111000111
10111110010010100010110101101100
10111110001101110100001101101110
10111110011100001111111101111011
10111101110001100001000110110000
00111111001011111111110110100010
00111101000111000010011010100000
00111101101100000110001001000001
00111110011110000100110001000111
00111110100101010010010000111110
00111110100110111001110001010111
00111100101100001000100101110110
10111111001010000100101101010101
10111110010010111111001000111111
10111111011111100100111101000110
00111110101111001001010010101010
00111110101111001000010101011111
00111101100101000100110010111111
10111110000010101110011101011111
10111101101100001000001110000000
10111100110110111101011000010100
00111101010010111001100001101011
10111110011010000010101101101110
10111110010110000011011101010000
10111101010010011110101110101011
00111110101011101110011011101001
10111110001010111111001010111010
00111111001100001101001111100001
00111110110111111000111010110110
00111110001111001001100101100111
10111111000110011100100010111000
10111110100001111110001110110000
00111110101011010010100010011010
10111110011111000100001110101100
00111101111110100101001100000011
00111111000001000011100001001101
10111011100010000110011010010110
10111110010010000111001100101001
10111110101111001011100001111101
10111111100011000100100111001001
10111110011101101000110010110010
00111101000010111111100010100011
10111110100110111001000011110110
10111111000110001000011101001100
00111111010010001000100101000000
10111110001100101010100001011101
00111110000101101000111110111101
00111100001111011001111010010000
00111110111001110011101111101001
10111110001011110101101110011001
00111110010000001111010011111100
10111011100000010010001101110101
10111110111111001011100110011000
10111100011001111101000110011010
00111101110110111111100100110110
10111110010011011111110100010100
00111101000011000110101110110001
10111110100110000111111010001100
00111100110110010010100101000011
10111101110110111100110100100001
10111111100001111011010110110010
10111110110000000000111110100000
00111110111110010010101110011011
10111110010000100101010000100010
00111110101100110100111100011101
00111110101011001011101110001101
10111110100110110100100000000011
00111100110100110010000111110110
10111111001101011000101101111110
10111101000000111001001110011111
00111111001001110010110111001110
10111111000001000100011111100000
10111110110000110100111100110110
00111101010111001000000101110101
00111100001110011100011111110001
00111110011011100110110001010000
10111110110000111000011000100001
00111110111110111000100001110010
10111110110011001010100011011111
00111110011000011111100110101100
10111101101101010010100100010011
00111110010000001011001101100011
00111110111000000000001101101101
00111101000000101111001100110100
00111110000100010000110000001010
00111110110101101111000111100011
00111110101000100101011111100011
10111111100000101110110101111111
00111110100110011001011111110010
10111101111000010100101101011011
00111111000011101101000100100011
00111110110011110010101000011011
00111110101101001110001101001111
10111101001110101111101110001000
10111101101000001010101001001001
00111100111101110000010011100011
00111110101000011110000000000110
10111110011110100100000100011001
00111110010110100010111001110101
00111111010001101010001100110101
10111110001000111110100101101110
10111110111100111010111111011010
00111110100100011100011111000011
00111110010100010000000000001111
10111110100010110000100010001100
10111100101111001111001010110001
10111110010100101000110001000010
10111111010101010010001010100011
00111110001000001010100000010001
00111101000011001110011011000101
00111101000110110001010110101011
10111110101000011001010010010101
00111110100110011001001111011011
10111101001100010111011110110100
00111110000010101011010101110110
10111100100100111011110010110111
10111110001100001100110100001010
10111101110011111101010101011000
10111110001110111101010001101100
10111111001001001000110100011110
10111111010011100111110001110000
10111111000111111000010011010100
10111111100100000010011110110001
00111110100111100101011101000101
10111101100101100100100011100110
00111110000110111110000110111110
10111110101011011110100001010111
10111110101000010100010011111000
10111101101111001100111111001101
00111110011010100111100010110111
10111110100000000000111101000110
10111101111101010010110011011111
00111110101111110111111110011000
10111110001011001011010000010101
10111110101011101111100011111100
00111101100100111011101010010101
00111110111000110110000110010011
10111110101001011001000001010010
10111011110110100100001100101001
10111111001110010000110001010110
00111101101101001000111011000011
10111110011000000011101111100001
00111110100111111011110100111010
00111101101010101010010111101000
00111111001001111010110011011110
00111110111001011101111011011100
00111101100111010001110000101000
10111110010101110010110110001001
10111110101011101000000111000001
00111110001111000001110000111110
10111110101000010001001100101011
10111110100011010111111101001100
10111111000100011101010111111000
10111111001110010110101111000001
00111110100000001101111110111100
10111110101001001100001010001111
00111110100111010110101010101010
00111111000001100111110111011011
00111110101011001010010000000110
00111101111011011100010100111010
10111111000001011110100100000010
00111110000000001011100011000000
00111110001001011110011110011100
00111101101100110011000000110011
10111101111001000000110101101001
00111100001110000011000011001100
00111111001100001111100001110010
00111011110011111010001011101011
10111110010011011001111000010011
00111110101100011100011000111001
00111110001100111000111010111101
10111110111010010001010100101010
10111110111000100011101001001110
10111110100111111111100111111001
10111101111111101001010100010001
00111110000100100000101000101100
00111110101110100101110001000000
00111101001010110011110010111101
00111110011100010001010001010111
10111110100001001111000101101111
10111111001001110011011100010111
10111101011001011010110100101011
10111111000100010001111101010001
10111101110111110011111110001110
00111001010011000111101000101010
10111110101100011110101111001001
10111101111001011111100101101001
00111111000101010001011110001101
00111111011100101010100010101110
10111110000100100100101000101010
00111101111101011101101000011001
10111110100000001001110101110011
00111110110011010111001110010000
00111110100111100111110001110011
00111110001001011011011010111001
10111110010010001000100101011011
00111110011101000100011111011110
10111110000000100101011110111101
00111110000100100101000101001011
10111111000101111110110111100100
00111110011011111100010010001111
00111100110000111111111110100101
10111111000101010011111111111111
00111110001101010110000010010001
00111111001000010000000001001011
00111100100110100010101010111001
00111101100110010011010111110010
00111110101001101011111100101100
00111110000010101111100001010001
00111110000000101000111110110000
10111110100011101011101110001001
00111111000010100100100111011000
10111110101000110010100010010011
10111100101101111111101101110001
10111111000011001101101110101000
10111111000110000000110100101110
10111111001110010001100001101111
00111101011011100011111111100110
10111110000001101100011111101010
00111110000000001001111111011100
00111110001000011101011101111001
10111101010111101001100010000100
00111110101000011101011111100001
10111110100010101000100010110001
10111010110010010110010100111011
00111101110111100000011111010101
10111111100000100001110110010000
00111111001000011001000001111000
10111110000011010011000100111101
10111101111100101001111000001101
00111110110001111101000011100110
10111101101111011111110100000101
00111100000100010011001111111000
10111100100110010001011000000001
00111101111101011001101111001011
00111101001111111010101000101111
10111111010000111011011110010100
10111101101011111011010100111100
10111110110001100101101010000110
10111100101100011100101001001101
10111110000100010011111110000101
10111101111000101100100101111100
10111101111010010001101001001011
00111111000101100001101111001100
10111110011001001111111011101100
00111110100101010000101010101011
10111101110100101111101011101110
10111111010011100111011110011111
10111110100011100001010111100000
10111101110101111011100101110101
00111110101000111001101100110001
10111101111110110001100110110000
10111100110110111111011101011110
00111110101001011101110010110011
10111110101010011111001100111100
10111111000110011000010110110001
10111110101010111011010011000010
10111111000110101011000011000000
10111110111100100011111010011100
00111110100010001100100111010000
10111110101111011101011001011000
10111110000011000011101101111011
00111101110010100110100110110101
10111111001110011110000011111110
10111101000000010010011001000101
00111110010010100110101000000010
10111111001100111111110000110111
10111110011100100000100111011000
00111101111100010100101011110101
00111110000110010011011000111101
00111110111001011110100101101001
00111101011100110100111110010111
10111111010110101001111101010110
10111110010000100100100001011010
10111110010111011111010010100100
10111101101111100001101001011101
10111100110101001001110101011111
00111111000000000011001011111011
00111101101100011111100110111110
10111111000111111101001000110001
00111101110010010111111110111000
10111110111010111010101100100111
00111110011000001110110010111100
10111110111001000000111101000110
10111111010110101010101110111111
10111101100111010101010110010011
10111101000100101100001101100111
10111111001010010000110011010011
10111110101011111010111100011010
10111110100011110101011101111100
10111110000001100000010011011011
10111110011110000000110001100111
10111101110011010010000000111000
10111110011000111110100000001110
00111110000101100110011111110000
00111100111011010110110011001101
10111110011100100011111100011110
00111101101100000100011011110100
10111110100011100101000010111001
10111111001110101100001101000100
10111101111111110100000101100001
00111101101000000000011111111110
10111110011111111101010111010000
10111111000101001111101010101111
00111100001011011000111101001011
10111110001101011101010101011011
10111101111100101110100000110100
10111110001001001111101010111011
10111110100111011001001000101001
10111111000101110000000001101011
00111110001001000011001100111111
10111110111011111000010111101111
10111110100111100100000000100100
10111110111111000010010000101000
00111110010110100110101111111011
00111110100011010101101101011010
10111110101011110011010011001111
10111101101001011110101010001001
00111110100010111100111010011101
00111101110110101111011001100000
10111011001110011101001111010101
10111110100001001010111000001000
10111111000111101111011011001000
10111110111100100000100111101011
10111111010100001001000001010001
10111110101100001111011110100011
00111101111000010010101000001001
10111111001010001010001001110101
00111111001000110011001110101110
00111101100011001010111011000000
10111110000000110001111011111000
10111101100110001101001000100110
00111111000011000111100110010111
00111110101000110011101011100100
10111101101010100110000001110111
10111100100000111000111111000011
00111110100110000011011010110100
00111111001000100001111000011011
00111110110010011110111000111010
10111111001010100001001101011110
10111101100100100010111000010010
00111110001001101011000110001010
00111110001110111100010011100100
10111101111111111001100101000111
10111110000010100001001010000111
10111110110101101100111100111001
00111101101001110100010111001100
00111110101100000001001001000101
00111101011001110010111110101011
10111110101110000001001010010010
10111111100101111000001000010100
00111111000100000000101000001110
00111110110100100110111111000010
10111100010010100001001110110011
00111111001010010111111010110011
00111101011011010010000101000101
00111110100100010011000001101101
10111110011000100101010100000100
00111101110100110111000001111011
10111101111001001100001100111001
00111110011111000000111100001001
00111110100011000011100101110011
10111111001011000001101100000111
00111110000000001011101110010100
00111110010001101000111110010100
10111110000101001011011111110100
10111101111101110001111011111010
00111110010011110100101011011001
10111101101000011101100101110011
00111100011100011000101000100011
00111110100001001010101110011110
00111110100111011001111001110101
00111101101011101010000011010110
10111110110000100111111010101010
10111100100110110011100011100100
10111110110110110000100010010101
10111110110111100101100000101011
10111110100010010001101111010111
10111111010001101111101010111001
00111111001000100110000000000100
10111110011110111010010011111101
00111110011000010000110101010110
00111110001001000100110001001010
10111110101011010011110001111000
00111110000100111110110111110011
00111101101011111111000100011111
00111100110010110001111010001011
10111110000110101011100101110001
10111110111111100101100001001110
10111111010010110011100011011101
10111110101001010010111110100101
10111110111000101001110000001111
10111110110101000101100000111001
10111110000101001110111011110010
10111110100011010110011011000101
10111110110010110011111110011101
00111111010010101101010100110011
00111101101110111011010110011100
00111110010100001001011011001010
10111110100101110001010011110001
10111110110000100011111010001111
10111101001111011110111101110000
10111111011111100000110101111110
10111110010010110100101101110110
10111100000001001101100111110000
10111101001100110101011111000010
00111110010011000110011110101011
10111101101110001100101010010001
10111110101110001111010010011110
10111110110010111111110101011001
00111111011000101101000100110111
00111101110111111110111100100111
10111101101001011001001011100001
00111100100001101110011010000110
00111111000100000001110010100110
10111101111010011101110010110010
10111111001001001101001111011000
00111110001001101111111011100101
00111110100100100111011110101111
10111100100011111011110101011110
10111111001011010010100000010110
10111101101100100001011001111110
10111111001011101001010100100010
10111101101000010111010111101000
00111110101001000011110010101101
00111110110100111100100001100001
10111100110110101000101100110000
10111110100010000101101011010101
00111110001011010110000000100000
10111101111001101010110001011001
10111110101101110011100000111110
00111110000011100111001010101010
00111110100010001000000011000101
10111110010000000110001111001100
10111110101110101010001110100111
10111100011011101011000001110010
10111110101000000001011100111110
10111100100101000000111000110111
00111110000001111001010101110110
10111111010111011010011011011111
00111110010101001011001001111101
10111110110001100000100101000010
00111101100010000001101111111110
00111110110011111010100010101110
10111110010100010110000110011001
10111101001110001101111111011011
00111110110010110100011111100001
10111110001110111100111000100111
10111101101000110110011100001000
00111111000100001101110111000011
10111111000110111110111000000010
00111110100101000000111001000000
10111110010001101000111110001001
00111111000110000100100100110001
00111110010010010111000110100000
10111110001100100110110100101010
00111110110001111001001101010100
00111110001101010110011000101110
00111110100101100000000110111110
00111110010101110000010001111000
00111110000110110001110001011101
00111110001100000111100110100100
10111111010111010011110101011000
00111101001110001100011110010110
10111111001100110000111110110111
10111111010001110110100100111100
00111101100101011000011111101000
00111101101100010101001001011100
00111110100010011001000010110010
10111110001111110010011110001100
10111111001001011101111101111000
10111100010110111101110000000001
00111111000110010110111001010110
10111110001101011011111011100110
00111110001001100111110100011100
00111100111000001011011101101111
10111110010010011000001111000000
00111111001011101101110011000101
10111010100100101000000011000101
00111110001101111001000010101000
00111101110010000000000101011100
10111100110000000010100101001100
10111111001000111111101010111101
10111101100100101000000000100000
10111110110110100000000000110010
10111110110001110010001011011011
00111110101101110111000010100000
00111110010101000000000000110111
00111101000010000000110111011111
00111111010001010010101011111011
10111110100101001101111000001010
00111110000100110100001011011101
10111110010001110010110010000110
10111110001010000101111010100001
10111110111010110000111110010101
00111101110010011011101111010001
10111110100010011000111010100010
10111110111000001110111110100010
10111111000000100101100001100100
00111111000011100101111101101100
00111100100010111110001111100101
10111111000101001100001111010011
00111100001110011000001001000001
00111101010101000010101111000101
10111110110000100101000100000111
00111101011010000011100001110001
00111101110101001000011100111011
10111101111010101011000111010101
10111110111010110111001001011101
00111001100100010100101100001001
10111110101101001010011111111001
00111110101000110011000101100100
10111110100010010101100001011000
10111110110111000110111110001110
00111110101011010010000011011010
00111110110010011001110111000101
00111110110000110100101101110010
10111101110101001110101100011111
00111110110111100100111100111100
00111110101100010011111000011011
00111110110000100110110010100000
00111101010101101101011010111011
10111110100111011111001100101011
00111110100000011101000000001101
00111110100010100111000001010100
10111111010010010101110110010001
10111110101000111100100101100110
10111111001001101110101110111000
00111110111110000001100111001101
00111110010100100011111011011110
10111110001110100110010110011001
00111110111011010010101100101111
10111110001111000011100110010011
10111110101010111101111101011010
00111011111000100101101001010101
00111101101011100101000011000110
10111110100111111101010101100010
00111110100000101010101110011100
00111110100000111001011111111100
00111101000001010110110100010000
00111101111101110111000110111011
10111100110000101000010011110011
10111110000000110111010001011111
10111110010000001001011001101111
10111101010111100101110110001001
00111111000011011001100110100101
10111110111000000111001101010011
10111110011111110000101011011101
10111111001000110000000001011100
10111110000001011001100111110010
10111111000000100100110011011010
10111110010101101111101101001000
10111101111011010010111001101100
10111110100111010011010000100000
10111111011011011111000011111110
10111110101100010101000110111010
00111110101110000010000101000000
10111110010010100011011100000111
10111100011000000101110000100000
10111111011001110101011010011010
10111110101101110010010001010011
00111110101001000110111010010001
00111110011100101101011011000010
10111111000110000011111111010010
10111110100110110110010000001001
00111110011011001000001110101010
10111011100011010001100010001100
10111111000001011111101101000001
10111110101110100111110010001001
00111101100000111100111010001001
10111110110100001101100100110011
00111110110001110100100001011110
00111101100000000110100001110100
10111101110100111111100100101010
00111110100010111100000001000001
00111101110100101000010011010100
10111101100111101111010110111000
00111110100000011010110101011111
10111110010100000010111100100011
00111110111110100010110000101110
10111110000100100000011101100011
00111111010010111001111011111110
00111110100101110000101110111010
00111110101010001010010101111101
10111101101011101010000011100110
10111101101111100110001011110010
00111101011111101101010111001010
00111110000101001000101101100110
10111110011000000010001101000111
10111110100100111010000000010000
10111111011100001000001000100001
00111111000001110111001101110011
00111110000001001011100101100001
10111111000011100111100101001101
10111110111100011110011111101010
10111100100111000011000011000100
10111011111011011001011101100001
00111110010010110111011111001111
10111101110000011010111110010011
10111100000100000101011010010000
00111110101101011001110100100001
00111110100111100010011010110101
10111100000001111010001101111000
00111110001100011000011001110011
00111101100110000110100011011101
00111110011101111111110011010111
00111110000011100001111100100101
10111111000111010101110011110010
00111111000101111110101010001000
00111110001010110010000100111000
10111111000111010111110000001110
10111111000001001000110011001001
10111110111011110111100111010110
00111110111100011100111011111110
10111011100110000011110101010010
10111110100001111101011001011110
10111110100011000111100100011011
00111110100101000010010100101100
10111110011101010001110011011000
10111110110011010101011110010110
10111111001000000110001010011001
00111110000000100001000101001000
10111110111000101001010111001101
00111110110100010001011101001110
10111110100001001110110100101010
00111110000110001011101011001100
00111110111001110111010110001101
00111110100111001111110111100101
10111101101010011000101101100010
10111110000110101001101101101011
10111101100111110111111101101101
10111110110010110011111010100111
00111110111101110000001101111110
10111101011111101100001101110001
00111110110111111000110110110100
10111110100000001011001001000100
10111111000011011011111100010101
10111101100001010010001110101101
00111111011111011010000100101011
10111110010011110101101100111001
10111111000011010100000011100010
00111110111010101010000111010000
00111110000010000111110011011100
00111110110000100110100000011011
10111111010110011101001101111000
00111110101000111101100101111001
10111110101111001001000110100111
10111011001101001100010101101010
00111110100101010111100111010111
00111110101101101101110110111010
00111110000011010011110101010111
00111110010001000000000000111100
10111111001001010101110000010110
00111110010101110010110111110010
10111110001001110011111011111001
00111100000101111011000001110011
10111101111000110110010000110111
00111101000110110100111111110100
10111101101010110100011000111011
10111110100011010101010010101001
00111101011010100011000000100001
00111110011110000000010011010000
10111110101011100101101010001010
00111110101000100011011000001110
00111101110110011110011111110001
10111110110001011000100110100101
00111110000110011110001001001101
00111110000111010110100100001010
10111110010111000001110010001010
00111110001111001000010010101100
00111101100001111101001111000011
10111110101001111110101100110101
10111101111011110000111100010011
00111110000011100001101110000100
10111111000011101001001000111101
10111110110010101110000010010100
10111110101000010100110010010011
00111111100010000101001110111111
00111110011100111000110110000111
10111111000111101011011001011010
00111110100001010000010100101110
10111110000000110111000000001111
00111110101100000110101001001110
00111110101100011010100011100001
10111110111110000011000001101011
10111111000011110011000111110111
10111111001101010111010000110001
00111110100100010000110111010011
10111111000110110010101111000000
10111111100000001110111100111000
10111111000100001011010110100010
00111110000011110001011010111010
00111101011101001001011101011011
10111110101101000111110110010011
10111110100010101100101001000110
00111110111000110000110001000100
10111101110011101011000100111001
10111110100101011111110100111101
10111110000001010011011100101010
00111100001001100111100110101000
00111110001000111010011100111100
00111110001011100000101001111101
00111110111111010001010011110000
10111110110111011001100100110110
10111110101001001010001011111100
10111111011010010000110000010101
10111110100000111010100001111001
10111101111001001000111111100001
00111110110001000110110111110011
10111110001000100000111010000100
10111110001101000110000111111010
10111110011000001011101101010000
10111110101100101100100101001111
00111110100010110111100100110110
00111110100110110000101110100110
00111101100000011100110101000100
10111110110101001011001010000001
00111101001000000111001010000001
10111101111000000000100110001110
00111110100001101100111110101000
10111101011011001010100110101101
00111101011101111111010011001001
10111110010000011001011111110000
00111110010101101000011100110111
10111111001000110110000001011111
10111111001011010000010010011101
00111101011111111110100110100000
10111101111010000101011111010011
10111100101010001011001111011111
10111110010101010001011111100100
10111110101000101111101011001001
00111110101101011000110001100011
10111111000010000001001101010001
10111110110001001000001000100100
10111100100110010010110010110001
00111110001010000111101001100111
10111110101101000000100100100100
00111101100101111111101010101010
00111110101000100000100011101011
00111110111100111010101011101011
00111110111110101100101110110100
10111111000110011100001110011110
10111110100101010011000001011001
10111111000010011000010100000010
00111101110100101010100001101001
10111111000100001101000110100101
10111110001011000100001100000100
10111110000000111110111100100011
00111111001010000101011110001000
10111110010101100110101000111011
10111101110000100101100110101101
10111111001100011110001001111101
10111101110010001111110111010111
10111110101001011011001011000101
00111101000000100011010001000011
00111101100001001101110011110110
10111110110000010001110011100101
00111100101000101010100101010101
10111101101000011000011110101001
10111101000111001001111010110000
10111100111110101101110000000111
10111110111010110010011001110000
10111110101101110100011100110010
00111111000111100100011010010001
00111110010000100101000010011101
10111110110110010011110001011111
00111101110001010010011011110100
10111110110111011000111010010110
10111110111010111011111100100011
10111110000110110111100110101100
10111110100111000010111110110100
00111110101001000111001001011110
00111101100010000010100001110011
10111110110100000010000100110100
00111110100100111011011100100100
10111111000011010001100110001111
10111110010100101101110101100100
10111111000100100011100010000100
10111111000101001000100111011111
10111110000100010110100111001011
00111110001000000111011111101100
10111111010010110100110110000000
00111110100100010010001000101010
10111110111001111101001100001001
00111110101011111000010010001100
10111100110100110100000001010010
10111110101001001110101110101110
10111110000110010101100111011100
00111110001000110111011011111100
10111111000100000100011110100110
10111110011001100101100110000110
00111110110111111011000101100011
10111111100100111111011010001010
10111111011000110011111100101011
00111110100011010000110000101110
10111110000100011011000111001011
10111110000001110011011110101100
10111101110001011011110101111011
10111110010010100000010011000001
00111110010011101110001110011111
10111101100110100101001001001001
10111100101110111111101111011000
00111110000100001010011111101011
10111110111000000111100100000111
00111111001010111111110101000110
10111101110000001110110110001100
00111111000110111101000100010100
10111110011111110110000111000110
10111110010000001001000010100110
10111101100001111110001001011100
10111110100010101111011111010000
10111110000111010100101111011110
10111110101000010011101100100110
10111110001101011100110111011101
10111101101000011101111010111010
00111110010110010000101010001101
00111110111110110011111011010010
00111111000001001000110011110111
10111101101000010011110111000111
10111101110111100011011011000101
10111111010111100110000000111101
10111100010111111111000101100000
00111110100110101000111000110011
10111101000001111110000110111010
10111110110100000000110101101101
10111110100001011011100100011100
00111101110010100010101101000011
10111101101000001101000000000100
10111101010000011101011000011001
10111110000010011000110011000110
10111111010101110010010010001100
10111110101000010000001001001000
00111100101001010101010111110111
00111101101011000001000110111100
00111110110010011110010000010001
10111110110000101101001011111001
00111110000010100100100101001100
10111111010111010001010111001111
00111110010000010001000010101110
10111110111100000100101010110000
00111110101001101100010110101101
10111111000011011011100110110101
10111110111000001111001101101101
10111110101100010110110101010000
00111011101011100011111100101011
10111011000011010000110011010011
00111110010111111111000010100011
10111110010001011000001011011111
10111101001011011010100010011010
00111101100010111100000111101100
10111110100111111011110100110111
10111110111010001011101100010111
10111110011000010011111111100001
00111110111101111001010110110001
10111110101011000101010101100000
00111101000100010001010001111011
00111101111101010010011101101000
10111110011010010101011001100000
10111110000001100010010100011011
10111110001110001111111001010001
10111110001110000100111011101110
00111100101011110010111001000111
10111111010111110011011010101100
10111110000101010111011100001011
00111100100111111000000100010010
10111010101010100110010110111011
10111111000000010010100101110001
10111111001100111011111110101100
10111110000000100010100011010010
10111110111111111100011011010001
10111111001000101010101011101100
10111110000100100001000110111001
10111111001101000001110101100110
10111100001110000001000001011010
10111110101000011000010001110100
10111110011011111001000001111110
10111101111100010001100000010000
10111110101000010101110011101001
00111111000010010010101100110010
10111101110111111101101001100100
00111101110000000000011111110101
00111100110111110110001001101011
10111110001101010100011001101110
10111110000000011011011001111010
10111111000011110000110001000101
10111110010011100011000110111010
10111111000111101101110000110010
10111110101101000000011111101111
10111111100110100010100110000011
10111110101111100000011100110100
00111110111100000010001100000001
10111100111101100001101111111001
10111110101000010101001101011011
10111100000011001110001011110101
00111110111011010111110010110111
10111111000001100000011100100010
10111110100111010000011110000111
10111110010011100011010101010010
00111101001010001100011110010110
00111110101101010011011011000000
00111101000101111000100100001000
00111110001100001010110010000000
00111110100011010111001111010001
10111110100110110010011001110010
00111110111010110011111101101000
00111110001001011101100111101111
10111110110010010101100100001000
10111110101101001100110010101010
00111110001110111101110100011000
10111110000111101000001010000101
00111110110001010100100011111011
10111110000001001011001000011001
10111110100001111011100001100010
10111110101001100100101111001000
00111110100010010000000001110001
00111110001111000100111110011001
00111111010000010001100110010101
10111110110011100100000011011100
10111101101010001010000110010110
10111101100101101010010000000000
00111110100101011111001000111110
00111101010101011110110001011111
10111101010001110000100101001000
10111110000011101100110111111111
10111110101101100111000001011101
10111110011010100001010101010110
10111110011001010011101010110110
10111111000110011110110001011100
10111101001010000100000010110001
10111111001101010110100000100000
10111111100000101110001100110100
00111110110011101111100100111001
10111111000010110000110011000100
10111101001000010011000100111111
00111110101010110110001100010001
00111101110111010011010000010010
10111101110101000110010010110111
00111111000011001111010001111101
10111110100001001001011100001011
10111110110111010111101100101000
00111110100100110010011111101000
00111011110111001001100010101101
10111101100011011001010000000001
10111110001100000110111011010111
10111110100011011100011010110010
00111101101000001101010001011101
00111110101111011011101000110111
10111111000101101010001011101101
10111110101001000111000010101010
10111110100010011011101111000101
10111110001101001110001110000001
00111101010011110010101110011010
10111111001011000010001011011010
00111110100110100000101001011000
10111100010111000110111011100010
10111101110110111000110100010010
00111110100111010010101011011100
00111101111001001111000001111100
00111110000110001100001011000010
00111110100011111011111001111100
10111110011110111010011100110110
00111101000011101000100100100101
10111110101000110111010100010001
00111110000011111110000000010110
00111111011010000001100110001101
10111110110010100101101111001001
00111110110011101111001011010110
10111111000010101011100001011011
00111110100111100111100010000011
10111111000000111100110010010101
10111111000001101001111100110101
10111110010000011110100001111010
00111100110001111010010101110101
10111110100001000110100111001111
00111111000100100011101000000001
10111110100011001100101101110011
00111010001111101100011010000111
00111110010110110010001111110011
00111101101110111100001001101010
10111110000001011001000111101000
10111110110001101110110111001011
10111100011001101100000001111111
10111110110010100110001111110101
10111110001011101111001001000010
10111110101101000100000000111010
10111110000111110001101100010111
00111101111100000001010001000100
00111110011110100000100110111110
00111110100000111001000000011010
10111110100000110100111000110110
10111110111010100010111000111111
10111110011010010001000010100110
00111110100000011111011001100100
10111110000010000110001101011111
10111110111001010000010010110010
00111100100110010100111001111110
00111111000011001110001111101001
10111111101010011101001000111000
00111100010111010010001100001111
10111110011111100110111010010100
10111101010100100101011110001010
10111101101011010110110011100111
10111110110101011101010011000110
10111110001001111100010011011110
00111111001100100010101000011111
10111110001101011000010001111010
00111110111000001101111011110111
10111110101110100010010101110110
00111110010011010010100000100000
00111110101100011000010010001011
10111110001010100101111011100110
10111110000001001001001110111010
10111110100010011010111101100101
10111111001001001100011001001100
00111110100100010101010001110100
10111101101111110100010110010001
10111111000110111001011100110101
00111101010101110110010101110101
10111110101111001000001110110110
00111101110011111011111001000100
00111110100101010110010110101101
00111100100101001101010001011011
10111110011110100011111101110011
00111110111111111111111100101101
10111110001100111011001001001011
10111101100111011010110101101101
10111100100000011101010001010001
00111101001001010010001010111111
10111101111000010110001111010000
10111110010101101110100110010010
00111110110110111011000101001000
10111111100101000101010110101011
10111110101100100010111010100111
10111110011110001011010111000011
10111111001110010000110001111011
10111111011001011100111100011101
10111110010000010011011101010111
10111110001011000111101001100011
10111110010111000110010000011010
10111110100111100010000100011010
00111101100000111011011001001101
10111110000101000111010100010110
10111100110000001000001000010001
00111110100101100000010111100011
00111101001111100111011001000011
00111101000111110101111110100001
10111110100001010110100010111110
10111101100001110100101110000110
00111101101011001110001001101110
10111110011000010001110110101111
00111111001001100001101001001010
00111101110111100010100100010001
00111101111010101111111100100011
00111110011010101010000100110010
10111101010001001111000001100000
00111101001001010000100110100001
00111111000100110110101011001001
10111101101111000100100001100110
00111110100000111000101111101000
00111111000101111101011001100011
10111111000100110001010000010000
10111101011110010001101010010010
00111111010011100001000011001000
00111110100100000001111010111001
10111110100111010100110010000001
00111111011101101000101000001011
10111111000011001111001101101110
00111100101110001011111000000001
10111110100100010000000110110010
00111101000001111011110111011001
10111110100000100101000011000001
00111111010000000101110101001110
10111111000110111000010001001100
00111110100111100111101101010011
00111101010100111101100000110010
00111101010111101000111111100001
10111111010010011011100000010011
10111111001010001001011011111110
10111110001000101110101111001001
10111110010000001001010010111101
10111110010011000101010011110101
10111110110101001111111111101110
10111111010010001110010111110100
00111110011011111110001001000000
10111110111001010001101001001010
00111110110011011111100010010011
10111101011101000011100110111101
10111101101011000111001011110010
10111110011100000100100010011001
00111110010010000101101110110101
10111110101101000011010110110111
10111110111111100111001100000100
00111110110011000010000110001000
10111011100001010100101100101001
00111110101100101001001100101010
10111111001101001001100101101000
00111100111100110011111100110111
10111110110100111000111100110101
00111110110000101000111111101000
00111110100010100111000111011001
10111110000101111100011111011001
10111110001011111111110110001100
10111100010110110111101111000100
10111101011101100101110000010011
00111110111010110010110001111101
00111101011001010101110101010111
10111110001000000000110100110101
00111110011100100011010000000101
10111111000010010001110000011000
10111110001110100110110000010000
10111101101001001110011010010110
00111101000001111010110111011010
10111110000010000000110001011010
00111110110110111101011100110100
10111111000000011001111001011101
00111101101011010111001000000111
00111101100001000101010000011110
10111100110011100100100010011110
10111110101000100001100011001110
00111110010010000001111010110110
10111110001001110001001001110101
10111101110101110001000110110100
10111110000110101001100101100110
10111110000111010111001110001111
00111111100100000001001011000010
10111110011001010001000001001110
10111110100001010100100011110110
00111010011001111010000010111001
00111111001000100100010111101000
10111111001011111110100000011010
00111110110101011001101010111011
10111110101000010001110010111001
00111110101110111011110110111010
10111110111110011001101100011000
10111101100000101011000101100100
10111110100101000011011000000010
10111110101100011011111111110101
10111110100111000100100011000011
00111110111011000101000011001011
10111101001100000100110000110000
10111110001001001101100001011011
10111110100111100010100100001011
00111110001011101110111110101101
00111101011110010001010000111111
00111110111110110110110011010100
10111110101111001111111110001011
10111110110101111010000010101100
00111110111000101011110010000101
10111110001011101100001111010011
10111110110111001011000010011010
10111110011011111110110010010101
10111101100111001001110001101011
10111111000011111001100100000110
10111101100101011011101101100011
10111110110100100100001010110101
00111110010001110100011111110100
10111110110100011011100111001001
00111110110000011001101101010111
00111100110001100001100010101000
10111111010110010001101101010111
00111100110100001001101101100000
00111110111110011110000011100101
00111110001001001011010001011000
00111110100001101011101110101101
10111110110000110001011011101111
00111101110110000100010001000011
10111101001111110011100101110110
00111111001100110011111000001100
10111101011101110001101101100010
10111111010011010111010001101010
10111110100001100010001001001010
00111110101110000100011111010011
10111110000010101001000110011000
10111110110010110000100000000000
10111110100010111100110110101010
00111011000001110101110101011101
10111110101110011111000110110000
00111110011100010001111100110001
00111110110110101110000101100101
00111110010101110111010101101011
10111101101100101100111101011011
10111111000101000000111101010101
10111110110010011011001110010110
10111110000001010001001111111001
10111110100111001100101111111000
10111110111001110001010111001110
10111110101100011100010100000011
00111101111011111011011001111011
10111110100010101100111011111110
10111110100110011101000011110000
00111110101001101001111100011000
00111110100100000110110011000010
00111111001101111011000000100110
00111101111110011110000111111100
10111110000000111001010101000001
10111110101010010011001110100110
10111111000010001101010000011011
10111110101011111000101100110011
00111110110000000111100100011011
00111110010101111111001000101001
00111111000010011100100101101010
00111110010011011000011101000010
10111110100001101111110110111000
10111110001110001010110000111101
00111101110011010001001110010101
10111110000110001111101001101000
10111101100000100000001000110101
10111100000011111101110000000101
00111110111111100000001010110100
10111110001111000011001101000011
10111110001100110110110001100111
10111110000110101100100010011010
10111101111011000110101001111111
00111101001000100011101110010101
10111110011000011110110000010011
00111110111010010000001101101010
00111101111101010101011000011000
10111110101000110100010101100001
10111110000000001001110110101001
10111111011111110111010111100010
10111111000100100111000010011110
10111110101111000110101001011101
10111101101110010001101011001000
10111110100111111111010101110111
00111111001001000001001101001011
10111100111111110001111001100110
10111101011100101000010000011110
00111101100010111111111010101011
10111110111100000010010000000100
10111111000011011010100101110010
10111110111110011100100110111000
00111111000010100100011000011100
00111111000010000001001010100111
00111110111001110011000001000011
00111110101110010000010010000001
10111111010101110111110101101001
10111110100101000001011110101001
10111110000100110101010001101110
10111110010000011000001010011101
10111110011101101100110010010111
00111111000001100111111011010011
00111101110100000101101000011110
00111110111000100010010011011111
00111111001111101100101101111100
10111101100101101110011110000100
10111110010110100011101001000100
00111110100001111101011110111111
10111110011001000010110110101011
00111111000001000010010101001111
10111101000101110001101101011110
10111110010110100110100001011101
10111110100000011010100111010110
10111110010010000111111111111000
10111110100101100000001101011011
10111110000001110110111101110110
10111110110110000110011100111011
00111101010111101010011101010011
00111101010100011010101100000001
10111110011100010110000111001100
10111110100110111100000001000111
00111101101000001000100110110101
00111110010010100010000001010011
00111110111100001101001011011101
10111101111011001111000000010000
10111111001111000110000010110011
00111110010100011001100001010100
10111111001011011000010110110000
10111110110000001100010000001101
10111101010100101010111000100011
10111101111001101011100000101100
00111101001111101010010101000110
10111110100010000010001100101000
00111101000101000011101011010000
10111110111010110010110111110010
00111110101101010001111100110000
00111100111001010110011000100101
10111110110001001110010000110001
10111011111111010101001000001100
00111110011011000010110110001000
00111101101010010010010111100101
10111110011110110010101110101101
00111110100011011110101001110101
10111001110111100001011001111101
10111111000011111111111111011100
10111111000000101100001110011110
00111110011001001101000100011010
00111110101010100010000001110001
00111111000000001100000001110100
00111111010010101100100000100101
00111111000110000010010111001100
00111110101010101011101011001110
10111100101000011110100111101100
10111110100001110001010000100010
00111110000001101001000110011011
10111111001010000001001000010010
00111110100011000111111101100100
10111110000011110110110100110000
10111110110000100110001001111101
00111110000011101011000110101110
10111110101011001011100101001100
00111110001011001010010110110001
00111111000111101011001111000011
00111101111001001101100111111001
00111110101010001111100001000001
00111101101110010001000011000111
10111110001010100111110011101011
00111100110001100000110000000011
10111110001000100100001110111001
10111110100111111110111000000111
10111101000000100000110110000000
00111110101101011010011010110011
10111101111111110111111110111010
10111110010001000010110110010100
00111110011111001010010100101000
10111110111100101101000010000111
10111110101101110101101111011011
00111110101001001110100001110001
00111111000110100001010001011111
00111110100001010101001101111101
10111101111011110110001001011100
00111111000000101010110110101111
00111110011000110111110100001110
00111110010010001000010100110100
00111101101101110011001000000010
10111111000101101000101110100000
10111111000000110101100001110100
10111111010001011010110010111110
10111111000100000111010000110110
00111111000101100100111010011001
00111110011001101111010001111001
00111100111011111010100100110110
10111101101000111111010000000100
00111101111000110000011111111010
10111110000000100010001101111000
10111110110100111110000010001111
00111110101011000000101111100011
00111111011100001010100011101011
10111011010011010001001110001111
00111110111110011110001011010010
00111110000100000011111101111110
10111110011001110001101101000010
00111101100110000011001010010011
00111111100111011000111010010011
10111110001111000011011111010011
10111110100101100100000001100101
00111110010011111010010101100101
10111110111011100010110110000101
00111101001000000111101100101011
10111110001001101011110111110111
00111110010111110000101010110001
10111110110000010100000010010011
10111110000010000111100000010101
00111110111001001111001100101001
10111101100010000000110010011111
10111110011110110110111100001101
10111110011011000001101101001011
10111110100010011111100000011111
00111110000010100110110101110101
10111110111000000110011110000100
00111100010001111110100001111100
10111110000110011011010111100011
10111101010011111010110100000010
10111111001111101110000110110000
10111110001100001001100000000101
00111110000001101100001100011010
00111110111011111110100000101101
00111110000001010001100100110011
10111110100001000100111000100110
10111111001100110011100111000010
10111110110101110011010110111110
00111110111100101010110001111011
00111110011101110010111101100111
00111101100000011111110010011011
10111100000111001001110011110110
00111110001000110001011010011001
10111100111010001000010111010101
10111110010010001010100100011101
10111110101111111111011001001000
00111110000110110011011000101001
10111111000010011100011000000101
10111110000101001001001100001101
10111001011000001000011110010011
10111110000100101001100000011101
10111111000100111010100010111100
00111110000000111100101100101110
10111110111001110110110110100011
10111110101100110110010010101000
00111110010011011000101111000000
10111110111110010110111011000010
00111110000110000100100110101010
10111111011110101100111111111010
00111110001100111001001110110000
10111111001000101001011111000001
10111110010111100000110111001001
10111110000001101111110010011011
00111110011110100101100001100111
10111111011000101000000011000000
10111101100000011101010010011111
00111100011000111000111100110001
00111111000000010001111000111001
10111101011100001011110110010010
10111110101101001111101011100110
00111101100001001110000101010110
10111100101010100011111111100001
10111110001000011111100001000100
10111111001001101111000001010010
00111110101011010110011000101110
10111110011001001011001001100101
10111110001001100111100111100010
00111110001011001011100110110101
10111111000100011000000010111111
10111110000101001100100011010010
10111101101000001111010010100111
00111101100010010011111110010111
10111100101010011011101100100110
00111110011011000010000100010011
10111101110010011110101101001100
10111110111101111000011010000000
10111110010110001001010100001100
00111111100000011010001010100111
10111101101001100000110111110011
10111111000011110111111001101111
10111101101110010110011000010111
10111110100111001110001101110000
10111111000001000101010100111011
10111111000000100110001010111001
00111110010110011101110000101101
10111110001001111000001111000001
00111101010100001011110011011101
10111110001000110010010110001001
10111110101000111001100100011110
00111110000101010000100111010100
00111111011011111101101010011011
10111110100000011111000011000100
00111110100000100011011111111010
00111101100111001000001110110111
10111110101110111011011101110110
10111110010100001101110111000110
00111110111111001000110000101100
10111111000001000010001111001011
10111110011111111110101001111110
00111110100010011100011101100000
10111100100111000001010011100101
10111101001000000100111010010111
10111110100011101000010001100100
00111110001111010100110010100000
00111110010111101101111100100101
10111110100100101100011001110000
10111101000111010110110010111001
00111111010110101101011011000011
00111101001110110110000000001000
00111110110000001111001000100100
10111101100010000011000100010010
00111110000011001011110100100001
10111110111101101010110011011011
00111111010001011001110110111101
00111110010000001011111100010101
00111110001010000010100111100000
10111110110100111111111010000001
10111101010111100101100000010001
00111110110011111000011010101100
00111110001000110000001010011101
00111101110011000100111100011100
00111110000110101110110110000011
10111110110110100100010101111111
10111110010000100001011110011010
00111101011010010110001000110100
10111101100010000001100000010111
10111110101100011010110011010101
10111101101111000000010010111011
10111110101111011000110110000110
10111110110000000111111111101101
00111110101010000011001000101010
00111110100101001000010011110111
10111110011111011011010111110100
10111110111011110101000111100100
00111110111010011011010101100010
00111101011101100011110001000001
10111110000010101011001010010110
10111110101010111010110000111101
00111101110000101001000111011101
10111110111101001000110000111101
10111111100000011010011110010010
10111110101010001101100101111101
10111110011110001111000100001110
10111111000010100000010010010001
00111101100000011010000001011000
10111111100000011001100010010000
10111110111001001010001101110111
10111110010100000111100010011010
10111111010111101100001000110100
10111110011000010110101011100100
10111110110001011101001001111101
00111110101001110110001011011011
10111110010001100100111110010100
10111111000010101111100001001111
10111111000100000010010111101010
00111100011011001010100000010001
00111110011010000110110001010101
00111110000111000000111000110000
10111110000100010100100011011110
10111110000110100001000011010110
00111110101011100100100001111010
10111111001010011100111110011100
10111101101001100101001011101110
00111110111011100101011001100011
10111101011001000010000010110111
10111110100111001001111011001001
10111110110110011100010000111011
00111100111001101100001110010010
10111110100000000100111011100010
10111110000101111111111010100011
00111100001100110000001110111100
10111101111010100010111110111111
10111110100000111001101101100110
00111111000110010011100011011000
10111110101000011001001001110010
10111110111100010011111110101011
10111110111101110110100111101100
00111110101111000111000001100110
10111110001110100111111001010000
10111110100111100111111101101000
10111110101001000001111000110011
00111110101100000000100000100011
10111110011000100111100000000111
00111110000010101110101001000001
10111101001010000010101001001011
10111110100001111010101111111110
10111110010101110010101111011110
10111110110000101011001000111000
00111110110100010111111100111001
00111110000000000001100000010010
10111111011010000100011001100001
00111110101010001011010010101000
00111110110011000000111100011001
10111110101010110011010111100111
10111111000101101100110010010100
10111110111000100000000110110101
10111110100001010010000001011010
00111101101101110111001001000000
10111110111101001011110111011101
00111101100110100001010011111101
10111101100100010111001011001001
00111110111001111000001101011011
00111111000000100000111111001011
10111101100011000100010000011110
10111110001100011000010010111100
10111111000011010110110001010101
10111110110111000010101010001010
10111110001110101111001000111011
10111110110001011111001001111001
00111110111001111111100111000001
10111111010101001010011110100110
10111100111010010100000100000001
10111101101111101010001000001010
00111110101001101101101001111000
10111110110100111001000100111110
10111110001001000110001111110011
00111110101000011110011010100000
00111110111100000011011101011111
10111110001100010110100010111010
00111110010100011011000110100011
10111111000000101101110010001100
10111110110010010101101011111000
10111110101111111111101110110001
10111110010101101101000000100100
00111101111000101000111001110000
10111111000011101101100100101100
10111110110111100101111100110000
00111100101101101101010011000000
10111110011011111001010110010110
10111111010001011001100100110110
10111101110000011000001011101001
00111110101101110011100101100110
10111110101011100111110111001011
10111101111000101010000000010111
10111101111010011010110101000101
10111110110111100000001110010100
00111110000011110101010000010010
00111101000010111100101010010010
10111110011010011010100111010000
00111101000000011111011101100010
10111111001010111011111011110011
00111110001011110110110100001010
10111110110011100111001000010100
10111110011000011111100111000001
10111110100100011001110001001000
00111110011100000011110011011001
00111110010010111011010011110000
10111110100011111101111000110010
10111110000111001001001001010110
10111110101110101011011000111010
00111110110000111101110001010010
10111101101001100111001101010001
10111110100001110010011000101010
00111110100111011001001000111001
10111110110010111010000110100100
10111110000101110101110000011011
10111111001101000010001000000010
00111110010000011100111001010011
10111100011111011010101100011001
00111110000100001000010100000000
10111110010110101111011101000110
00111110111111111011000000111010
00111101111101000111111001110100
10111111001010001000101000000100
10111101111011111100110100111110
10111110101010011100011111000101
10111110000000101101010110111010
10111110011111101010001010011110
10111111100000010000111000001101
10111110100001101101001010010000
00111110101010111001100011110101
10111110101010011101001010101010
00111110100011000110001010011101
10111111001010111100001010111101
10111111011101010110000111110100
10111011100000100101101101111111
10111111000001000000111100001001
00111101110010111011101101101011
10111101000001111111111100000010
10111110110100111110111000011100
00111110011111100001001111010001
10111110101001010111111011001100
10111101111001110000100110111000
10111110100110011101101001001100
10111110100001110110011100001011
10111111000000011010100000011001
10111110101001110011100101111000
00111110001001010001010001110100
00111110010111001110001111000101
10111110111101101110100110100111
10111111001100111101011000000011
00111110010010010010110110000000
10111110100101100111110001010010
10111110000110000110001110100110
00111101100000101101110101010111
00111110110111010001100001010100
00111110100011001100101011100000
00111101010100000001011110101111
00111110101111100001011000000001
10111101110111111111101111001100
10111110000010001010000000101110
10111111000000011011000011010011
10111110110110111011101010011100
10111110110001111000101011011110
10111100100001000011010101010001
10111111001000011101010110111111
00111110110110111001011111001110
10111110100110001100101000110001
10111110000011100111000111000010
10111110100000010001001110001100
00111101010110011100110101000000
00111101010010000000001000100111
10111100110001011011100110101110
10111111001011111111011100111101
10111101100000101011000100111001
00111110110011110011000000000011
00111111001110000000100111001011
10111101011001001101010001110000
10111111100001101010000000011010
10111111000010010100000000101101
00111110100100111110110111000010
10111110100000001111010000111100
10111100000000111101101111101101
00111110110111110010110001001101
00111110101101011110111101100010
00111110101011001011111001000001
10111110001001010100001110001001
00111110010100110000011101001111
10111101110000010011000011110100
10111110001110000011110011011010
00111110101011000110001101101011
00111101000111100110001111000001
10111101110110010111100100100111
00111110110111010000000110010001
10111111001111010001101000110001
00111101010101010100110000110111
10111110110010101101100011110001
10111110010100110001001111000011
10111110100000111011111011000001
00111110110010001010100010110011
10111110101101101010110000100111
00111101110000010000000110111110
10111111010101111100011010110010
10111111000110111111110001101110
10111110000100001100111100010100
10111111000010100111101001010100
10111101000000100010110110001010
10111101010010011101010100000011
00111111011011000011111111011010
00111110101110010111000011001001
00111110111000000000111010100110
10111100011101110100011000010001
10111110101001100000010100010101
10111101111110011011110001100000
10111110100110001101001010001110
10111110000101110111110010000001
00111110111010110001110000000001
00111110101111110101010100101001
10111110101101011100100100001010
10111101110010001011011011010010
00111110011101111010010100100110
10111110111010000111011010111110
10111110010110010100111110000111
10111110000001000111111100011001
10111101100110100011000011001001
10111110000110010010111010101000
00111110010101011100000111110010
10111110010011010111100101010011
10111110101101110100101111001110
10111101010111000001100011100101
10111110100111010101110011011001
00111110100010000110110100010011
00111011111110000001101010110000
10111101010110110011000100110011
10111110011010000010110101101001
10111111001001110111010011110100
00111110000010100001001101110000
00111110100100101000010010001100
00111110100010001000101010000011
10111110101010000000111001101110
00111111100010100101001111010011
00111100101001010000001010111111
10111111001110000010101000100010
00111101001111101101001110110000
00111110111111001001010011010000
10111111000100001111011001100001
00111110010000111010011100100100
00111110011000001111100010010101
10111111001001100101100100111101
00111101101100110111110111101110
10111110100001100010111000010010
10111110101110110011001100001101
00111110111001001010001110101110
00111101110000110111101000011111
00111110110011111100110101100101
00111111000000110000100010111011
00111100101110000000100011010000
00111101111110011110111011101000
10111101001000110101100111110110
10111110011110101111000111100111
10111101110101000110111110011100
10111001110011001101110110010111
10111110111010000110011111100000
10111110111000000011001110101001
00111101111010000001011101011000
00111110100000111001111001000001
10111101111011101010000110011111
10111110101110001110010001101100
10111110110100010100000011101001
10111110111000111110101010011000
00111110110001101011111001111001
10111110100000000000010001010100
00111110001010101011001000011110
10111110101111111100001101101101
10111111001011110100111001101100
10111110000100000011000011001100
00111110011011101100001111111010
10111110101000100010101001011011
10111110000000110011101001100101
00111110001101101100011010110110
10111111000010111000010110100110
10111101100100010110011000001010
10111110100000011010011000000101
00111110011111011010110011101111
10111100111101000101111111110001
10111101101111001110111001100001
00111111011001111001110110011000
10111101101001111110111101110111
00111110101101001000111110011111
00111110111110010111101010001110
10111110110111001111111111011010
10111110010000010000001100011001
10111110111111101110001110110010
10111101111000101100110001101100
00111110100000011101100100000001
00111110110111111010100011001100
00111110000111110011000101010110
00111111000110100110000100111001
10111111001101111001111010000010
10111110101010000010001111101010
10111101110100101111011111101100
10111101100001101001000000111111
00111110001010100010111001111001
00111111000001011001111101111010
10111010110110111010100100001000
00111110010101111100001110011001
10111110101000010111011100000110
00111110110000001010111000001110
10111110101010111101000001010010
00111101110000111011011010000101
10111101010111110011111111100001
10111110100010001000100110100100
10111101111001101000000111100111
10111110101011011011101001011011
00111101110010110010000000101111
10111110110000011010010110010101
00111110111001100011111011100110
10111110001001001101100101110000
00111111001011111000001111011011
00111101001101100110011001101100
10111110011110100001000111001011
00111110100010001100110010001110
00111110011100000101100001001110
10111110110001010111101011100101
10111110101110010111100010011101
10111111010101110001100111001000
10111110101011010101111110011111
00111101001100111110110100001100
10111110100101001111000110011011
00111110011011111001100001110010
00111111000010100101110111011010
00111110100000101101101101100111
10111110101101011001011101111001
10111110011011100001100000000110
10111010000010100100011011011001
10111110000010001000110011101001
00111111001010100011010011100001
00111111001011011110010100000111
10111110111101111100001011001110
10111110010000010111110100001101
00111110010101001111110111110011
10111111001000001001001100100011
10111101000111001110011010111111
00111010000111000111010011110100
00111101111001100110111001000111
00111110111010010100111111000101
00111110100011011000000010011010
00111100010100011110111110000100
00111110101100010001001111001101
00111110100010111100101010011011
00111111000100101101100110001010
00111110100011001001110101001111
10111110000011101110001000000110
10111110001011010001100001101100
10111111001010000001111111101000
10111100110110100100100000010101
10111111000000000010010001000100
00111110100100010010010110011110