10111111000000100001010011110011
00111101100100001111000011000011
00111110011010111000110001110111
10111110100100110001111000011011
10111110110011100101000100001101
00111111000111001100111000001101
00111110101001011101011001110111
00111110110011010110100010100011
00111110110100101111111111111011
00111110110011011001110101010000
10111111000101111001000000000100
00111101100011001000001111010000
00111110110010011100010100001011
10111110110001010011100101101011
10111110110100110111100010100101
10111101101100101000101111110011
10111110011011111011000010100110
10111111100100110000011101101000
10111111000111101110110010100100
00111101101101100111010010000011
00111101000110101111101011011010
00111110100000110100001000000001
00111101000000010111101111101101
10111100100111011111011011110001
10111110111010011110000111011111
00111110101111100011100101100110
00111110100110001110011001101001
10111110001101000111101011010101
00111100010011010111001000011111
00111110101111001010100010110001
10111110110100001101111011101101
00111101110101111010111110110011
00111101000000110110000001011010
10111110010110011001100010011111
00111111000001100000000110010110
00111110111100111111010110100111
10111100101010011100100011001111
00111100111001010000111101000001
10111110010110111010010000101110
00111110110010110011101101110101
00111111010100100011101011001011
00111110100100101101101001000100
10111110000001110000010100111010
00111111000001000111110011000001
00111101001010101000010011100010
10111110110001011001010000001111
00111111010110111101110111010101
10111110110000000100110000111010
00111110101111111011001101010111
10111101111010011100010000011001
00111111000110111011111010111010
00111101111101110011110100111101
10111111000010001010110001010111
00111110011010100110101000101100
00111111000110111011101010111100
00111101100100001100111000010001
00111111010001001011000011100011
00111110000111011111011111100111
10111101111100110010011101010110
00111101101011101111110011110000
10111101101000001111010011010011
00111110101001001110101000000011
10111101101001100110011011111111
10111110001111111101010000111110
10111110000110110110110101000111
00111110101000000111011101100101
00111110110101101101001110000000
10111110111100100010111110000000
00111110111110111010010110011001
10111110100100001001000100101000
10111101101100101001010011001111
00111110111010100111001001100010
00111110010011111110000001100001
00111111000011001010000100101100
00111110100010110010010110001010
00111110110010000100000101001110
00111111000101111101101110100111
10111110101011100001100011101100
00111101100110110100100001110101
10111111001000101101011111101010
00111101111101110010111010010110
10111110010101100101010110110101
00111101000001001000110000001101
10111111000110011001010010110100
00111101101111001000011011100110
00111110101010010110011000111000
00111110100100111011100100100011
00111110101001010001111001000011
10111110111000000001101111010001
00111110101110000010110110111110
10111111011001010101000111011001
00111100000010110010100101001101
00111110101110101100100110110010
00111110101000000000010011000001
10111110110101000110000010010111
00111100111101111110010110110101
10111110100100001011100000101011
00111110001101000100100000000100
00111110110100010101100000000011
00111101011110010000100010111101
00111101101110101010110011010001
10111110000000110001100100001000
00111100001111000101101101111101
00111111000100011101000110101101
10111110011011010111011000100110
00111111000100100011101111100010
00111110110001101100011101100100
10111110110001000100110010111011
00111111000001101101001001011100
10111111010110000001010110100010
10111110110101001001111100011101
10111110010010001011010011001111
00111110101111010010101011101010
00111110010111101010111000110010
00111101001111001101111111111011
00111111001001100100110100101110
10111101110111010110101001110010
00111110001001001100100000101010
00111110011100001011000010011101
10111110101000000001001111101110
10111110001010110011011111001111
00111110101100000011110111000010
10111111100001110110100110111010
00111111011100111000100111101011
00111101000101001111000010111010
00111101101111101000010011011100
10111110010000000111110101010001
10111111000010101101010111001110
00111100101001011000100001110000
10111110100101110010100100000000
10111110001101001010000000100010
10111110111111100001010001100010
10111110011110001010001010111110
00111110000100000110100011110001
10111111000011010100000110110010
00111111000101010101010110100111
00111111011010001011110001110101
00111101010011101011001001010011
10111101110100101111011111010010
10111101011010111101000000000110
10111110100010010011011100000101
10111110110110111010110111100110
00111110100010011010110011100010
00111110011101011001000100101011
10111110101000010000101011110101
00111111001000010011111111011111
00111110001001110000101001010101
10111110010111100110110101100110
10111110100100000111111011100011
00111111011011011100101110101011
10111110011010101010111011101000
00111110111101111001101010110100
10111101101010000100010010010001
00111110100010010000100001011010
00111110111011110110010110101110
10111110001000100010000110111010
10111110000111000111100000111111
10111110100001110011001001110101
10111100111110010111111001101010
00111110100110100100100100111000
10111110111100101111111101001110
10111110101011000101100100000110
00111110101001110101110111001011
10111110010010100011110101110000
00111111000011111111101000001000
00111110100010011111111001111000
10111111001110101011001000100100
00111110011010100011001110101011
00111110001001010011011111010110
10111111000001101111001011101001
00111101110101100100011100110110
10111110111101100010111011011101
00111101101110011111010100011011
10111110011111011010000001011000
00111110101110111101001101001010
00111110111110110110010001000101
10111100000101010110100100111100
10111111001110000001101101000101
10111110100001110010111111101101
00111110100010010101011110011000
00111110111110111111101111011000
00111110110010100111101000101011
00111101011110011001001111011111
00111110110001010011010011001101
00111101100010010111100011000101
10111111000000100101110001000110
00111111001011010101100000110101
10111101101111111110011110110011
10111111001001011011110110000110
10111110010000110000100010000110
10111101110100000010110011011111
00111101100101100110010111100000
10111110101100000000101011001110
00111111000011000101100001001010
00111110110011110000010101011011
10111110011101001010001001100101
10111111000000101101011100010011
10111110011001000001010011010100
10111111011000111001001110001110
10111110100000111100111100111011
00111110100001111011011110000011
00111101110010100101101101100101
00111110000110001000101101000000
10111110100111110010101111001001
00111101011011101101001010110011
00111110000101001101000000010000
00111110001000011010111100000001
10111111000011010101000000010011
00111110111100100011000110000001
00111110011001011111010011111010
00111110101010111001111000100111
10111110001111111011010011001101
10111101000001000000100110010011
00111111000101100000111000110111
00111110101011100101001001010010
00111110000010001101101001000000
10111110110000010111001110101111
00111110111011101001110001111001
10111110110110100100000110110101
00111101111101011011100000010110
00111111000011001111011011100110
10111110101011001100100110000101
00111110101101100100010110011100
10111110011001111101001010001101
00111111001110101100101101011101
00111101100101111001111110101000
00111111000111100100100101011001
10111101001010111000000111100110
10111110011000001110101000101100
00111110110010011110011101000001
00111110111101010100011010010111
00111110001001011001110011111000
00111110100100011100010101001101
00111110110000100110010110101000
00111101111011011110001000110010
00111111000011110011000001011000
10111110101011000010001101111011
00111110010001001111100110001000
10111110111111100011101111000010
10111101111011011101001110100100
00111110001111011100110111001111
10111110000001100011011110111110
10111110011010011101101000011101
10111110001010001100111000100101
10111110100000010001000111010101
10111100110010101010001001110010
10111111100111101010001110101011
00111110011011110001101101010011
10111101100001001011100010010111
00111110111100101001001001110000
00111110100110101110100100001100
00111101110000010111101011110010
00111110111100100110001100111100
10111110111110000010101000110010
10111110101011101011011110010000
10111110110001011110011010110110
00111110110011001010101100110000
10111110111010100000010110111110
10111101110101011100110110001010
10111111001111111011100011010000
10111110110111011110110000000000
00111101011111011011101110110110
00111110111101001110100000101111
00111101011010100000110000110100
00111110101101001110011011000001
10111110000111001000101110101110
00111110110000101010010000110100
00111110000010101010110001101001
10111110000110000011101000100101
10111111000100101100001010011101
10111110100000001000100001100110
10111110001100000111111110011001
00111101100111101011111000010011
10111110000001110000001001100001
10111101110000000000110001010001
10111110111001010000001000001110
10111111011011100000111000100110
00111101100101101000111111101101
10111110011011100001101110000111
00111101111111100110111101101010
10111101111000001101111100111110
10111111010010100101111101000110
00111110011001010001101000100000
00111101111110100001000011000011
00111111000100011100001011011000
00111110110101010001100000101010
10111110001110000011011101000111
10111101101010011101111101101001
00111111001100010110011001101110
00111100100110011100001011011001
10111101110101101111111010101110
10111110000000010110100010101001
10111110010011100011010100100101
10111110100000101011011110011011
10111101100111110000110000111011
10111110101100000111100010000011
10111111001100110111101111010100
10111110010101011011100100110000
00111110101101000111000110011111
00111110101110001100010001110101
10111110100111110110000010000000
00111110110011001111000001110000
10111110110000110110001101101101
10111110100010010100100000001011
10111101011100100000101111011110
10111101110110001101100001001111
10111110001011111100110100111111
10111111001100111100001000000101
00111111000100001100001001111010
00111110011110100101000110010101
00111110100010000100111010001010
00111110001000100111001001110001
10111110110011010000010001011011
00111110000110111000101111111010
10111101001111011111110100001001
10111110100001001010001011110011
00111111000111010111111001110010
00111100100110011010110111111101
00111110101111100101100100001011
00111111010110100010010001011001
00111110110110000000101100101011
10111111000001000010001100000000
00111111010011100001101000111110
10111111011001110110010010110101
10111110001001100101000100111010
00111101100100000100111000010101
10111110101111100001111100100100
00111110001000111100100000001010
00111101101011111010110101000111
00111110110000011010001101110000
00111100101001111110010100011001
00111110100110000000101001100100
00111101011000111100001000101011
10111110000000110010101000100011
10111101101011001010101111111010
00111110011100001111001000010010
00111110101101101101010110010110
00111110100101100011011110011001
00111110101011000100111110001101
00111110001010111111000111011111
10111110111100110101010010010010
00111110101001001110101011001011
10111101100100011010011110001010
00111111010110101001111101111101
00111110000010110010100111001110
10111110100101110110110000010001
10111110010111000110001001111111
10111110000110001101101100001011
00111111100010101111110110101010
10111110100000100111101100001111
10111101101010110100111100000000
10111011111101101000000000100001
10111110001001011011101010010001
00111110101000011100010011101111
10111110100000000111010101000001
00111111000100000001101110110110
00111101011001010000100000101110
10111110100010011010110011000001
10111110001111011101011101010110
10111100011001110000101000100001
00111110100111010010111010111000
00111110101110111000101011101000
10111111011011100100010001111110
10111101111110101011010100111101
00111111000011000110011101000011
10111110000101001000000111101010
00111111000010011111001011010100
10111110110011001000001001101101
00111110010100001001010100101101
10111111011100011111101100011010
10111110100010000111000110000111
00111110000100100011001000001010
10111111001010001010101001000001
00111110111101010011101010110101
00111110001000101110010110011101
00111110100100110000111100000110
00111110110101000000110100111010
10111110011110100110000110110100
10111101010010011011100111111101
00111110000000101000110011111101
10111110100110101110010000011011
00111110100000111001001110010010
00111111001111101011011001000100
00111110111111011101010000011110
10111111100000001000010100101000
10111110110100000000110011000100
10111110100111100000101011111001
10111110000100111001111001111010
10111100110001101100111111100000
00111101011110101000111011101000
00111111000001101010011011010110
00111110011011011101011010110010
10111110110110100010000111111011
00111110100010110101110111110011
10111101010000000000100001110000
00111110111010100100111011101001
00111110100001011010100000011000
10111101111110010100010001011100
10111110001011010111111110111101
10111110110111111010000010110011
00111101100000111111011001010101
10111110011100110101101011100110
00111111001110111111001000000110
10111110001011011001000101100010
10111110010001101111010010100000
00111111011000110100111010010101
00111111001001000111111010011010
10111110101000110000100110000111
00111110101010000111010001011011
10111100001001010111001100101111
00111110011000001101000011011010
00111110011110001000100100000000
10111110010111110010100110011000
00111110101101001011101111111001
00111101011001100010110101100010
00111011101000111001000111111010
10111110011100010100110001000010
00111101101011100110001001111000
10111110010100011100010110100111
10111111000111011111000100000110
00111110010001001110110100110111
00111110101100100011111100010000
00111111011010110000100111011011
10111101010010011001011000001000
00111110100000000001011101100000
10111101110101101101011111000011
00111110001001001101111110111011
00111110000101100101110001101110
00111110010001010100100011001101
10111110111001110010001001111000
00111110100100101101011011011100
10111110101101101010011101000100
10111110111000000010101010001101
00111110000000101000110001000101
10111101001110010000100110010010
00111111001011111011011101010011
10111110111000010100011101101010
00111111001001110101011110100100
00111110001000011101110001101001
00111100101100000110010110101010
00111110010101110111011111101110
00111101110110000110011000111001
00111101000110010001101001010101
10111111000001000010001111100000
10111111000001001001000000100111
00111110101000100110100101000001
10111101000111010111000010111100
10111111010101010111111111000101
10111110010110000001111010010000
10111110101100010010100011010101
10111111001001011001110001110001
10111101110101101100110010000001
00111111000101011011000100101111
00111101011011011010000110111100
00111110100111100000101000011100
10111111001001100110001100101110
10111110010101110001110101010110
10111111010111001100000101100010
00111110100111010101010011110110
10111110101100111011001000111101
00111110001101011111011011001110
00111110001010000100101100011010
00111111000000001011011011110000
10111101111001110010000100001010
10111111100001101111011111101110
10111110010000100110111111101110
00111111000111000010011000010111
10111110000111010010100000101011
00111111000011100001111010011101
00111101010110101110000011001001
00111110101010101010100010001100
10111110001111111010111010100101
00111110100110011011110101100010
00111100001111100011010011111011
10111100001010000001110011111010
00111111000011010111101110001001
00111110010110101011100110111000
00111110001111001101010000011110
00111110101110101100010000010101
10111110000011110001000101010100
10111110011110111010000101100101
10111111000000010001011011001001
00111101111101111100011110001100
00111111001000010000110110110101
00111100101111110001100111100001
00111110100110111101111100000011
10111111000111000011010000111011
10111101100010000010101101111011
10111110101001111101000011000100
10111110100100100110110101011111
10111110101001101011011101000100
10111101011101111001100011011111
00111110100011101001011101001111
10111111001010100100111000001100
10111110011001000111100011011001
00111110111111000001000110110111
10111111000001111101000010100001
00111101001010101000010011011011
10111110101110011100000101011101
00111111000011100101010110111111
10111110010100010010100011101001
10111100110111101000110001001011
00111101001110011001100010110001
10111110111011011000011001101001
10111110101010100101001111101011
00111110100110001110000100111010
10111111001100100001000011101011
10111110011111000110111100011111
00111101000010110100101010101000
10111110001001000001000001110000
00111011001110001011000011000001
00111111001000010010011110100010