10111110101111011111000100111101
10111101100001010000000010101111
10111110010110111010010110001010
10111110110111101111010001011001
10111110000000111010110100010101
00111101110000001101110111100110
00111101100010100000100000000001
10111111010110101001101000011110
10111101111111011110100001010001
10111110011000001100010001001001
00111110100110000101111010011000
10111110101001000110110001110111
00111110011010001010011011111000
00111110101010111000011010110010
00111110101110011101000101010110
00111111000111001001001110111000
10111111011101100100000010100010
10111101111100000111110110100110
00111110100111111001111010110111
00111110000110000010000101001010
00111110101000010010100000100011
00111110110011010001100011111011
10111110001101000111111101001111
00111110110000000100001101101111
10111110010010110110111101010000
00111110111111110101010111100011
10111110011111101110111111000011
10111110001101110010000011010101
10111101001101100010110000011001
00111111010110001000011111100011
10111110001010110110000111101000
10111110100010101100100101111100
00111101101100010100001111011010
10111111010000000110100001100001
10111111010011111011010100111010
00111110111010101110010111100111
10111101110100101001100001001110
00111110101010110110110101110011
00111110011111001000001100111000
10111110000001101110011010000100
00111110101001110101110100100111
00111101100110011111111010101000
00111111001001101011101000001111
10111110100111111100101000011011
10111101111111001110110011111010
10111110000000111010110111100000
10111110001011100011100101111011
00111101101101001110010000001011
00111110100110011011110111110110
10111101111000100100011010011110
00111101111011011100001110000111
10111100111110000100111010001101
10111110100000101010100100110100
00111111000111001000001100110100
10111110001101000011101100101000
00111110101100001110010111100011
00111101110101100101101100011001
10111110110110010111011100110011
10111110000100001010001110101011
10111110111110111000110110110011
10111110111000000111010010010111
10111101100110000000001101101110
00111101111010000100100101111000
00111111010001010100010101001011
10111110000010101000111001100010
10111111001000001001010111110001
10111110100011101001100110111010
10111110101011100100110000001001
00111111001110011101011100011110
10111110011010110011101001101110
10111110011111010011111000100010
10111110001101111000100000110011
00111111001000101101101010101101
00111101010010011011011110111101
00111110001001011001111111110100
10111110111010110011101010111000
10111101100001111000011110000101
00111110110111100001010010100011
10111110111011100110000010111000
00111110001011001010110110101000
00111010001011011000000111100110
10111110101001110010100100001111
00111110010111001100111011100110
00111110100010100101111100110111
00111110100100011110010011111111
10111101101001101011001010111010
00111110011111110100100010100111
00111111010000000111000000010010
00111110100100011111001101001111
00111110001100100100000111011111
00111111010111011101001010111111
10111111001100101100110101111000
00111100000110101001000010101111
00111101111111001001010101001000
10111100111111101101100001100000
10111110101110010000001111000000
00111101110011101011101011111111
10111110110100111000011000011011
00111111100000110011101101111010
00111110111100011100001111101000
00111100110001000101101111111000
10111101001111000100001010010100
00111101110001101011110111111011
00111110100110111000100001101011
10111111011010010101110110101100
10111110100010001110011010100101
00111110101001010011100101100111
10111101010110011110000100101111
10111101011010111101010010100110
10111111001111110100011001100000
10111101101101101101010110111001
00111110001111010000111001001011
00111101000011011110111101001110
00111110011110011100010001011101
00111101100110101000101111111100
00111110101010100110011101010001
10111110001101100101011010010111
10111111000101110011100100011110
00111111000000110101111011001101
00111100011101001010010100011001
10111110110100001011011111001000
10111101100010001000010010001101
00111110101101111011000100100000
10111110100010011111100110000110
10111110100010010111111010000000
10111101000011101100001000001111
00111101010010000101110011110001
10111101111101001111101000110110
00111101101111000111000000011100
00111101111101111100011001101110
00111111000110011100101111101100
00111111001101001110111011010010
10111110111010001000011000101111
00111110110001101001110011101100
00111110010001000111111101010010
10111101110010101001011110100001
10111110110000000000011011101101
10111101111011111000110010110001
10111100001111101100111010011110
00111110000100011101001101100001
00111100111000010000011111000100
00111111000001010000110001101100
00111101111000101110000010000111
00111110101100001011000111010011
10111110000001100010101001011101
10111110000010010100011010110101
10111110110011101100111101111100
10111110110010110000111111111000
10111110011010011110101101010011
10111110101000010001001101101011
10111101100011100111101001010010
00111111000111010000100000110100
10111111001000100111101100010011
00111110100111000011110010101011
10111101100010111100111000001000
00111110001110000100001001110110
00111110110010010111100000101101
10111110010111101000000000101110
00111110100100110110111110010011
10111110111100100000101010001101
10111100101110010111010101111111
10111101101110101011000100100000
00111110000001101011001010010000
10111111100001100101110100100001
00111101111111001001100011001000
10111101100010000010000000010110
10111110010110001000110101110001
00111101110000011000000010001010
00111110111001000100111110011011
10111111001000000101010011000110
10111110010010100111001101000110
10111110000101110000001111011100
00111110111000110111011111111010
00111110101000010010010000110000
10111110110000011010000110011011
00111110011111010011111100000001
00111111011100110000110001110110
10111101000101010110110000000110
00111100111000001011000111111110
10111110100110011010011100101111
10111110000111111011001011101010
10111110001001000110001011010101
10111101111010011000101101011000
00111110101101011010101000011101
10111110111100010101101110000110
00111111011101110000001110111101
10111110100110001010110000011000
00111110111011101110110101000110
00111101111101110011010100110001
10111111000110010110001100001011
10111101000010101111101100010000
00111101111100100010111011000011
00111110110110010010110010001001
00111110000101100110011010000111
10111101111000010011100111010111
10111110000001111110001101001011
00111111000011001100010000110101
10111110011000101111100001010111
00111111000010101110010110010101
10111110110100010110001001000111
00111100001000101101010111110001
10111111000101101001100010101010
00111110110101000000010101010111
10111101111011100111101110011001
00111111000110110010101111111101
10111111000100101011100001110100
10111100110000001110010110011110
00111101101110010010001100101010
00111111001001100110111011101100
00111110111011111011101001001100
10111110000101000011010010001011
10111110101010010100000100000100
10111110101110010111010100011111
00111110101011001110101000011110
10111111000110100110000001001111
00111110011100001101101100001100
10111110101010110101111101011001
00111111001001100011000000000010
00111110101101100101111111110001
00111100011010001110110101000100
00111111000001001011000011101110
00111100100010111001000110110101
00111100000001010100011101001101
10111110001001011011111110111100
00111110001101000111011111000100
00111110001000000100110010000100
00111110101110100011111010111000
10111110011101010011011110010001
10111111010010001100111010010011
00111111000111000110101101011011
10111101000010011011011011001100
10111111000100101111110001001100
00111111000100000010110101001111
00111111000001001100110101100000
00111110110111101111000011111011
00111101101010110101100111001000
10111011010101111101000010001010
10111101100111001111011110001111
00111110111010010010110010000010
10111101001011100011100100011101
10111110001110010100111010001011
10111110110010101010001100010001
10111101110111101110111010010110
10111110001110100101110110000101
10111101000001101010101001100001
00111110010011001011100001111101
00111110110010001110111010000001
00111101111010010001010011001010
00111110100001010110111101000011
10111110000011101101010000011000
10111101100111000011010101111100
00111110110011100101100000101011
00111111000100000110000100000100
10111101011001111101001001001011
00111110111111110110001100111010
00111100110010010000110100100011
00111111000111110010011111010111
00111101001101101010011100011010
00111110001110110011001010111100
10111101010011010001001100100100
10111110100111011011101101100011
10111110001111011000100111001000
00111110010010010000000010001110
00111100111101010111110010101010
10111110100110110010111110011110
10111110100010010000000011111111
10111111000111101000001000110100
00111101010000001100011111100010
10111110100101110000101111110011
00111111000000001001000010110010
10111101001010011111011111111111
00111100000011101110101111011010
10111110011011111111111010011000
10111110101010011011010101100000
10111110100000000001100101010010
10111110111010100010110101001010
10111100110100110001000101001110
00111110101011111010100000011010
00111101110000111000010011101111
00111101100110000101000101000111
10111111001101101000001111001100
10111101110010101101111001101010
10111101111100110000011101111110
00111110100001010011100011100010
10111111010000001100110110111011
10111110001111111000001110001110
00111110110100011100110011111110
10111111001100110010110000100110
10111101111011101100001000111010
00111110100101100000000110101000
10111110111010000011011100011100
10111110101001001100101111011100
00111101101110011011011111100000
10111101101010001111100100011001
10111110110101111111101110111111
00111110111010100111001110111001
00111110001011101100101101100000
10111100111101110100001110111101
00111110111001010001110001000010
10111101100011011010001000111111
00111110111001011110111011011011
10111110000011000111110110101001
00111111101000101011101100000001
10111101000001111000111010100010
00111110010101000011101001001010
10111111001001001000100100101000
10111101100010010111111101101101
10111101110111010010110000001110
00111101110110101001101010010100
00111101100000011000000010001110
00111111000010011111010000111011
00111110011100110010000110100111
10111110110101100010111111110010
10111111000100001100000111100111
10111110101101110010001001111000
00111110001000001110111100101111
00111110101010001110000010100010
00111110000110001111110010101010
10111110011000010010001011010011
10111111000101100000111000111001
10111110111111010010101001101100
00111110101101001001010100001110
00111110100111100110011011100011
00111110110000100101010010100101
10111110101111111010010011010001
00111110110011010101111110000001
00111101011111000000110001000010
10111111001001001010100110011101
10111111101000100000101000101111
10111110100100011011011000111000
10111111000110001000110111011010
00111101100000101111000000010111
00111110011001111101000101011011
00111101001110111100101011110111
00111110001000000000000111001100
00111101111000001001011111011000
10111110101000000110000101110110
00111101110010000001101010001011
00111100001001111111001010111011
10111101111010100100011000110101
10111111000110001111101001111001
00111110111111001111010010100000
10111110001111010010000101000000
00111101010101011100111001001110
00111110001110011111001110100010
00111110110010011100010000010011
10111110110010100100100101000101
10111110111011000100100100111001
00111110000101100111101010011010
00111101101110111001001001001101
00111110101101010100000110011111
10111110110000100001010100001001
10111110100111011100110101111000
10111110101000011100011101011101
00111110001101000110001001001100
10111110010100110000100001001001
00111111100001010011010010001001
00111101100110100011010110110100
00111101111110000010101001011000
10111110101011110101100010000100
10111100100100011111100100100011
10111110100010100100000011111110
00111101111111100111100100001000
10111110111010010000111001010111
00111111000000110011001001111101
10111110110101001110001001000001
00111110101110100011010010100101
00111110101000100100001000011011
00111110010010110001011001000010
00111110001110111111010001111010
00111111000101111011000100001110
10111101011110101000100100110011
00111110010011001011100011011100
10111111011010001011101010011100
00111110101010001010101000010111
00111110001111111111011000101111
00111101101010111001111110000100
10111110010101010011100100010110
10111110111000000101110110000110
10111111001011010000000111110111
00111110011010111001111000010000
10111100001011110001010110000110
10111110111011110100010111000101
10111101011101101010101110110011
00111101101010110110100101100000
00111110100001000001110110010111
00111110000001100111011101011101
10111110001001011000011001111100
00111110001011000101111101010111
00111110100101001110001111011101
10111111010000101111001000111101
00111110100011100001111110111100
10111110110100111110011011110101
10111110101111110100001100000011
00111110000011101000001011101011
00111110000011100001000000010100
10111111001010011101010001101100
00111111001110110101011110011010
10111111001011111000101000011000
10111111000011000010000000011101
00111100101001000110000100010000
10111111000001110111111111100010
00111110110101111001101000000010
10111101001110000111111001011101
00111110111101011010010000011101
10111110001101010100001011001111
10111111001001011010001111010100
00111110110101011000011101100001
00111111000101101100000101000110
00111111000011111000100101001111
00111110001000100110001010010110
00111110100100000101010101101001
00111110010000000100101100011111
10111100001101111000001110101110
10111101101010010100110000100101
00111111000001100110001000101011
10111111000011010111011001101110
10111111000011101110001101100101
10111110101010001011011100010001
00111101111110000100011100011100
00111110100001011001000010101110
00111101111000010010101110000001
00111110110111011101010011110100
00111101110100010110101110011000
10111110101000000010111100000010
00111110100111101010101001111111
10111111001000000100011100001011
10111110100000000101111111000111
00111110100000011010101010011000
10111110100001000110010101110101
00111110011111011001000000011001
10111111001000001000001001010010
10111110000011000011110001011011
00111101101010000111101111111010
00111110001110001011100000001001
00111111000010111111000110110000
10111110111100010100100110101111
10111110011010011100010110000010
10111100101001100001100001111101
00111111000001101010101100101001
00111110111100000101010001111100
00111101101101001111001110100111
10111101111100111011011100100001
00111110000101000101000100100011
10111110101100000110101011010110
10111111100101011110011100010000
00111100110110100001110111101110
10111100000111000111110101001001
10111111000010011111011101001100
00111101111101011110001011000110
00111110000111111010001011001000
10111110101011100111101001110110
10111101110011110111000101000100
10111111010100001000101001110010
10111110000000011000110010010011
10111110000111111110010011000001
00111110100001011101010101011000
00111101111100001001110000010011
10111101011001111111001000101101
00111111001000011100101001010010
10111110010100110110110011110010
10111110100010110110110110111010
00111110011101011000000000101011
10111110110111011010001100011101
00111110100000101011111000000100
00111111000011110010010100000101
10111110110110100000110010010100
00111011011111001101111000100101
00111100000000111110110100001111
00111110101111010000011111000010
10111100010100001110011100110000
10111111001000101101111101000100
00111110100111001000111010101011
00111110111010111110110001100011
00111110010001101010000001011100
10111110110010110100011000110001
10111101111001100110010000111110
10111101100001100010000111111101
10111111000110111000101001001100
10111101111111001011101101011110
00111110100001001010111011000110
10111101110001000100110011010000
10111110111011011100101000110000
00111100110000010011001010011001
00111111000011011011111101111001
00111101100100011110000101111001
00111111100100000111110011101101
10111110011010011010100000101001
00111110011100001110100011011110
10111110111010000000010010001100
00111110101100001000110010010110
10111110001010011001001100100001
10111100101010101010111011101111
00111110110010111001000111100011
10111110101000100011111110000001
00111110101011100100101110100011
00111101111100111100100010111101
00111101110001011001110011000111
00111110100111011001010110011000
00111100111111111111011000100111
10111011100010100110101110110100
10111101100001000110010111100100
00111110100000101100111110001010
10111110110100010100000010001101
10111111000101010101000000000101
10111101010000100010100100011110
00111101111001110100000000001011
10111110010110001111111111110010
00111101101100001010101000000111
00111101100111000010100001100100
00111111000111101010111011110010
00111101110010100010011000111111
00111011111011100111111101100001
00111111000001011011001010000101
10111110111001010100111010101001
00111101100101001110100111000110
00111110001111000110110110101001
00111111000101010000111001001101
00111100110011011000001111111111
00111110101000101100111110001111
00111110010011010110011100110010
00111101101101011001111011010101
00111110010111010011111000100111
10111101111101001010001000100010
00111111000101010111111011111100
00111101111010100000001001011001
00111111000100101010011010100010
00111101011010011001011100111111
10111110000101111000110100111010
00111110001001010110010010110000
10111111000000000001111011110000
10111111010100110101110111111010
00111111001101000101101100000111
00111110100110101111110111001001
00111110100101001001110111111010
00111110111001110000010110100110
10111110000010011000001011000100
00111101111100100011011001000101
10111111000100101011010111011000
10111111000000111110111100011011
00111111000001000100101011010001
10111110010101100000110111000110
10111110011100110110111110001100
10111110010011110110000011000100
00111101110011100110011111101010
00111110100110010100010101011100
00111110111000011101111110110100
00111110101111001110111001010000
00111101100101101011100011101100
10111110100110111111001000111011
10111110110010100000110011010101
10111110110100000011110001100001
00111110101001000111000011000111
00111101001011100000100110101101
00111110010110101100101011011110
10111101111000011010000001100001
10111110000000100001001010011001
10111101100100011001111010100110
00111110010000000011100010100011
10111110100100100001011101010101
00111110100011010101101110111110
00111111000111000100011111011101
00111110110101101110110101110001
10111110101010001010110111010110
00111111001001100011100100100100
10111110100100111110001011010100
10111110011001111111001010001001
00111111001100011101110111111110
10111110101000011000110110110000
10111101111101010111010110000011
00111110011001100010100100000110
00111110101011101011011010100001
00111110110101001001011110100010
10111100111000010100011010111010
10111111011110111100100111010010
00111101110111100110010100010101
00111110100010101100010101110011
10111110100110100111101010111010
10111111010001011011110101100001
10111110010001010011001111000100
10111110100011100110000000101010
00111101001101000101010101000110
00111111000101001001100100001001
10111110101001101011100010011111
10111101000001110100110100000011
00111111010110101100100101010100
10111101101100011000011000011111
00111100100000110111101011010110
00111110100100110000111100110011
00111111000001001001001011000010
00111111001011000101100111110110
10111101111000100011011001111110
00111110011101100101000100100010
00111100111101101011011100110010
10111110101011000110100100111010
00111110000010100110011111101001
10111101111011000101001110101001
10111110001110111111111100010011
10111110010101110111101110001111
10111101001000111011110010000010
00111110101101010110001111010001
00111101100100111100011111001111
10111111000101001111101011100001
10111100100111010110011010101000
00111111001010100100011000100011
00111111001110001101110000110011
00111110000000111010110101011000
00111110000100100010100100011111
10111010100010100010110101100001
10111110110010001100100001001011
00111110011100010100000100100100
10111110111000001100110100110000
00111110100101100100101011011110
00111111010000111001111011011011
10111101100000101111100111001100
00111111000000101111000111111111
00111110011010001101010000111000
10111111000101111111010011110100
00111101101010011111101011001101
00111110010111100011111100110010
00111011001000101010110000001100
10111110010000100010000011110111
10111101011100001101001111100001
00111111001100001111001100001000
00111101100100010011111000010000
00111110101011110111100010101111
00111111010000001110111010101000
10111101101001010010001011111111
10111101001011000101101000011100
10111110011111110000110000010110
00111110100101111010100001100111
10111110110001111100110011111110
00111101000101101001011011111101
10111101101001000010101111111011
00111110100001110011001001011011
00111111011001110110011010110001
00111101000111111010101101111011
10111101110001001100101011001010
00111101111000010110001000101010
00111110110001111001101110011101
10111110011000011111000001001101
10111110110011001111000100111010
10111101101100100001011110101111
00111111000101010011011001110010
10111101010000010001111111011100
00111111000111101001110000110111
10111111000011001111001001010000
00111110110110010100010010100100
00111110111000001000011011011110
10111110001100100101101010010100
10111110100110111110101001100010
10111110100011010111111100111110
10111111000011010011110100101101
00111111001010001100001001010000
00111111001110010011001000011100
10111110001000111011110010011100
00111110101001000101110011101010
10111110101010101100001100001000
00111111010010010010101001101110
00111110011111111011011000100100
10111111001000111010011111001100
10111110110100110101110100011110
00111110001000110110010100101100
00111110000111000101001011100110
10111110000011100011000001110001
00111110100011001001101011100011
00111110011111101010100001101100
00111110110111000101000101110001
00111101110101000110111100101010
00111101111010110101111001011010
00111110101010000001010011010011
00111110010110011101011011000011
10111110000001001100100110001011
00111111001111110101111101001100
00111101010010010110000000110000
10111110001011010110010001101011
10111110111110100010101101110100
10111110011001111110001000001100
10111110101111100011001110010001
00111111000011111010000100010101
00111110001111111111011100010000
00111110011111010111110001001000
10111110100101011010011011101111
00111111000001000000110010110010
00111110010011010101101111010001
10111110100011111110111100011100
00111110100011011001011010011000
10111111010110111101100011111010
00111110000001000111000001111001
10111101111001010000010011011000
00111110111001100011100101100010
00111110001111010001010001101101
10111111000001001001110100000010
00111101100100101100001100001111
00111101000111000101101010101100
10111110001000000011110111101110
00111110100111011110111111000110
10111110001111111001000001100100
10111101111011001111110011010000
10111111000011000001010010110010
10111101111000110001010000010001
00111110100011010111101011111011
10111101011011111100101100100111
10111111001011101010111011001001
00111110001011010000010100110001
10111101000111000000010110101110
00111110111100010110010111011010
10111110110100011100110001011100
00111110011111101000011101111110
00111111011011010000000101100100
10111101111011100110011110001110
10111110010001110101111110111011
10111110110001110010000100111111
00111101110000001110111000110011
10111111000000010000111011101101
10111111001111001001000010011000
00111111000001000110101100011100
10111110001110010000110000011111
10111101000101010000000110111101
00111101110011100100111010111110
10111110001010010101010110110110
10111100100101111001001011010011
00111110001011110001000011011110
10111111001100101111001010101011
10111110111100101100101011100001
00111101111001000000010100000110
10111110001100111110000010001100
00111110110100101000100110010010
00111110001100001010100100111000
00111110111100000101110110010010
00111110000110001111100111000101
00111101100111011001101000111110
00111110111101000111110001001110
00111110000001000100001000110001
00111100100100111000000111101101
00111101100101011010100001101011
00111111000001110010111000110110
10111111000010011010101111010110
00111111011010101010100000110010
00111110011111011100010111011100
10111111000100000000001011111001
10111101100011000001000110111001
10111110111010011110001110000110
10111101011100101111001010011000
00111101001011001101011010011100
00111101100000101000101100101100
10111110110010001111111000001110
10111101000000011101001101011101
10111110001100011111001011111110
10111110110010101111010110011100
00111110101010110010010011111101
10111101101001101100110011010010
00111110100010111100010000010010
00111110011001010000101110110111
00111110010100111100010111111010
00111110111000011011001101010111
00111101110110000110100000010100
00111110100101001100010011001111
00111110001100101001001110110101
10111110100011001110100010111110
10111101110000001111100011010001
10111110011100000011011100001011
00111110111101011001001000010000
00111110100101010001111101001100
10111101110101000001110101101100
10111110101111001110010100010001
00111111000000101011001101011001
00111110001011101100011011000111
00111110111111100000010100011000
10111110011010101111001001010100
10111110001000010010101000011110
00111101110000011000101001011111
00111100000011001111110110101010
10111110111000000110101110000011
10111110101010101100011010110001
10111110010111010101111000111101
10111110100011011001101010101110
10111101110001000110101001111010
10111111000010100110101101100000
10111110010000001110110000011100
00111110100001000111110110011011
00111111001011010100100000110111
10111110100101110101011101000011
10111011000100010000000011010111
00111110111101011010110101011110
00111110100000010101100011001001
00111111010101110001111000101001
10111101100111010111111101001101
10111101100011110101111100101000
00111110100010100100110010111010
10111111100010110110111101010010
10111110111000011001101001001011
10111101101100001001000001100001
00111110111101101001000001000100
10111111000000101011011100100000
10111110000001111111011001010011
10111110100110010100011111100011
10111101110010101000000010111110
10111110111101101101100010000010
00111110110100101100100110000100
00111110111010101001001001000001
10111110111001110001110101101100
00111110101011010000010011110110
10111110001001111001000110010010
10111100010110111110011011000001
00111110100000001110111101000000
10111110111110110010010001110001
00111101011101111010001110110111
10111110101101101011100100000111
00111111001001001111101110011000
10111110011011001111100101111110
10111111000110011100011000000101
10111110011000111001101011101011
00111111000000010011100100001111
00111101011000001001000011101111
10111110000110001101111101001001
00111101110110001111000001011010
10111100110010001010000010010000
00111110001111110010111010010100
00111110001011001010010110100000
10111100100101101010111101000010
00111111011001011100010100101101
10111110110100101010100111100010
10111110101111001010110000110110
00111110010100011011100100000110
10111101100011101111110111010101
00111111000101100011100010100011
00111110011111000010110100100011
00111110010100101110100101001100
10111110011000011001110111111010
00111101000001011101111000010110
10111111010100001010010011001000
10111101011101000111101111010110
00111101000010001110110011110011
10111110101011001111100111001101
00111110100110101101110101000101
00111110011100111101100010010111
10111110101011000000111011101010
00111101110010111001101010100110
00111110110000000001010001000010
10111110101011101101001001111101
00111101011001101000110101110000
00111110101011000001001000110101
00111111000100001110001011001010
00111101000000000000011001111011
10111110000011000111011110010001
00111110001010101100111100000001
10111110000011101101010111010010
00111110101010010001011100100101
00111110101010001001000100011100
10111110111001111100011111010101
00111110100111010001110001101101
10111110001011000100010101110010
00111111001000010100111110101001
00111110111010101110100000101001
10111110111110011001101100010001
10111111000000111101111000101100
00111110101001100110110010000110
10111110101110110000101010110101
00111110000000001101110010000010
10111111000110000001100101011101
00111101110001000100101100101101
10111111010001001101111011000111
00111110010100111100001000011110
00111110101001100100010011101110
10111110101100010001111100101111
00111110010010100011100101110001
10111110101011001111111100000101
10111110100111101111100010110110
00111110010011001100011100111010
00111110000001101000110000110111
00111110001010011011011100001111
00111100111010111110100001001000
10111110010010010011000101101010
00111111010010100011001010000011
00111101110010110010100110001001
00111111001001001100001000110100
10111101001010011001110111000111
10111110101010111010000111110011
00111110010101011111001001100000
10111110110010101001111101000001
00111111010001000101100111110001
10111100100110111000000100000101
10111111001110010011110110111101
10111101110010010011111010010100
00111110001000001010011110000001
10111110011001100100100111000111
10111110011111110111001111101111
00111111000100101011010110110110
00111110000101011010111000100000
00111110110011100110101110100101
10111101000100101101111010010001
10111101110100011010100111110010
00111110011001011110101000111011
10111110111110100001100000011100
10111110100111111100110011101000
10111111000101100100111001101100
10111110010110111011101111010111
10111110110100000111001110101001
00111101001111001111110001100001
00111111000110111110100101100101
00111101110001000001001000011011
00111110000110000001010111011010
10111111001000000100101110001111
00111110000011001111101000001110
00111110101101001110110011101001
10111110000000010000101011111000
10111111000100000101101001101111
00111110101110101101111101011010
00111110011000001011010010110000
10111110100100100000100101001010
10111101010011101101111110010100
00111101110010110101100111001101
00111110111101110000100100010011
00111110000001001110101111110100
00111111000000001100100010111010
00111111000011010000111111101101
00111101101100101101111100111010
10111110101010000100000010010010
10111110001001110001000000101001
00111110100101110110110111100010
10111110111000101010000110111001
10111110111100000000000001000101
10111110111011111011110000000011
00111100011111010011001000101001
10111101110111000101101111011100
10111110111001101101000011111110
00111110000001011010100100100000
00111110001010010010000100011110
00111111010001101001100000110010
10111011010100000011000101101101
00111110110100000100111011111100
00111110010010101000000111001100
00111110001011010001010111001001
10111110000001010000000101001001
00111101100101001100100110110100
00111101100110111111110011110011
00111101100111111110010101101010
10111011110011111010100110000000
00111111001111010101101101000100
10111111010110001101111000010001
10111111000000101001100011000001
00111110011011000101100110111001
10111110111111101001000100101110
00111110111101001010111101111111
00111110100100001110001100001011
10111111000111110101001101011101
10111101010001111111101110010000
00111110111001000111100011111111
00111100100001010101101110101111
10111100000010110001010000110010
10111101010001000001111010010001
10111110100010111001110100001011
00111110110001011110101110111000
10111110110110101001111101010110
00111111000001111111010100101110
10111111001000111000011100010001
10111110111101000000111100000011
00111101110101101010110010111001
10111100000010100011001000110100
00111111001001100111100101000110
00111110000011100001000010000010
10111110011011110011011111001011
10111110100100101001001011100111
00111110011111010110000111110110
10111110001001010100001010001101
10111110101110100000011100010101
00111110000011011010001101000011
00111100010011010101001011001111
10111100010001000001101000101110
00111110110100110101000111110100
10111110101011101111010000011111
10111110101110011110100100011101
00111111000111110010100001011001
10111110101010010010001010110111
00111111000100111010101000110010
10111100101101011001101000101101
00111111010101010100010011001001
00111110110100011011001011010000
10111011111010010111011000000101
00111110001010100111110111101011
00111101101100011000101101101100
00111111010100000100100000110010
10111110101010001010010000000010
10111110000000011000101010101111
00111101110101010101110010001100
00111111000100000000000010100011
10111110100000111101111111101001
10111111000001100000111001010100
10111100011010101011101011110001
10111110111101001010111010101010
00111110010000110100000000010100
00111111000111001001000111101000
10111101111111110001010101011111
00111110110001011000110000110110
10111110101110011110110000001000
10111101010111100110010011010110
00111110100110100101100001100110
10111110111011111001101010011010
00111110001001110001110111100000
10111110011101100101011101100100
00111110111000000111001011111000
10111101110100100010010110110110
00111110101010011010100100101001
00111110001101010000101101100110
00111110101011101000000011100010
00111110101011110000111010110000
00111111000001010001101010111000
00111110101011010110001001101001
00111101001011101001111111111111
10111110111000000010101001111010
10111110011000110100001011111001
00111111000001000100111101001001
10111011101010100100010111110010
10111101101101111011110000011000
10111110110101101110001110101110
00111111011100011011100110001010
00111110000011110010101010000100
00111100110101111100010011101100
00111110110110110100001001101000
10111101111010101101000111011110
10111101100001111111010001010010
00111110100001000101010101110010
00111110110011001011000000011011