00111110001000110101100001101011
00111111000100101001011001000000
10111101011111001111010111000000
10111110011101100101101111101100
10111110100001101101010101010111
10111101001100011000101100100111
10111111011000101110011111111100
10111111001010011001001100001100
10111110011101010000000010010111
00111111001010010101110011011101
00111101110100100011000110110001
00111110111011101010100011000110
00111101010000111000001001011000
10111111000110001110110011100010
00111110010010000010101110001001
00111110100110111100100011010001
10111111000011111110000000100010
00111110100101110110110100011110
00111101100100100011100101110001
10111101100001111100000110111001
00111110110110111010101000100110
10111110101111010011001010110011
00111110000101111111110000100011
10111111000100001111100010011110
10111110101110110010010100010010
10111111000000111101100100001111
10111110100111101011000000100001
10111111010011111101000100001011
10111111000111010010011000011100
10111110100010001101010011101001
00111110000001110110110011001110
00111111000010110111001001000101
10111110000111111000100011111001
00111110111010111001001000000101
00111110100100100001100100111100
00111110100101010111110101101000
00111110111111011101001001110010
00111110110111000001100001001000
00111110101011111000101011010110
00111110000000010110110111000011
10111110100110011000010110001010
00111110111101110011010011111010
00111100100101001011100110001100
00111110110111101000101000011010
00111110101010101010101101010101
10111110110101010110100011001010
10111110011101000110101010100110
10111110000010110101111011110011
10111110111000100000101010111010
10111110010110111111101100000111
10111101001001100101010100110110
10111110100011000100101010011100
10111101000100001101011001100010
10111100100101000011000100111010
10111110100010101011101101011100
00111110001110010011111010110010
00111101000010111010110101000000
10111101100100101000011111111011
00111110001010110100110100101000
10111100111111101110111101010010
10111111100011001110101101101101
10111111010110111111010001010110
10111111000111010010110010101110
10111101001100110110110100001000
00111110011010000110011001001010
10111110100001111111000010101110
10111110111111000010001010011010
10111110100000100101010100011011
10111110111110101011101100110000
00111110011001100010010000110100
00111110110010101010100001101000
10111110001101111011000011100110
10111110111011110011000000110100
00111101100101011010011001011010
10111110101110001101000001100110
10111110110101101000101101110001
00111101001100010000010001111011
10111111000000101110000101101001
10111110110010001010010001010111
10111110110000010111011101111110
10111110011100010000111000010111
10111110100000110001111111101001
10111110101010100111011011001100
00111011111101100110100101101000
10111111001101000001110111001110
10111110000111001110110010100101
10111110100000110110111001001100
10111111000010011110001011101110
00111100100101001101110011000101
10111110110101010000100000001101
00111111011110010001000100100100
00111100011000101100001111100000
00111111001111101100100010111111
00111110100101111010011001001110
10111110101000110001001000000000
00111110001010111001010000100101
10111101101100001110101011001010
10111110111101100011001011000010
00111110101100101100101011010100
10111110101010110101101110011010
00111110100001111110110001100001
10111110000000010001010110110101
10111110111011000110101111011000
00111100100011111101110001100000
10111111000000001011010101100111
10111110010010001010110000111110
00111110011010010010011011101001
00111110000001000101100100100000
00111110101110101011110010111011
00111111000011110100111011110011
00111110011010101100011011001100
10111111000011100001100010101110
10111110111101110001110100001111
10111110101000101101010011010111
10111110100010001010011100111000
00111110110010100111001011011101
10111110111001110101110100011010
00111110000110110101111100000010
10111110101010001000101000100010
00111110101110101110001011000110
00111101011101001010011001110100
00111110110001110110011010110111
10111110100000101011001110000111
00111110101011110001010110000000
00111111001000100100000101011000
00111111000001010000001111110101
00111110100110010110110111000001
00111100111011011100011010100101
00111110111011010110011000011011
10111110001101001101000001011110
10111111000110000000010010101010
00111101111011000010101110001100
00111111000110000111000000111011
00111110011001011010111011100110
00111110100110101111011101001100
10111111001001000111010011111001
10111101100101101100011111010000
10111110101111010000110100101001
00111110100000110101001011100110
00111101011011100001111110101110
10111110100011011010110001110001
00111111010001110010000100010100
00111110111010000111101000011101
00111110010010010111100101001001