10111110000011011101011110101000
00111111000000001111110100000001
00111110100100110111000100111101
00111110001101011110000101101011
10111110011110000010011100111011
00111101101100101010000001011011
10111111000010001101000011101110
10111111010101100011010001010000
10111111000001100000110110101111
10111110101101000001111101110010
10111110110011010101001010110011
10111110110001111001111111011001
10111110110001101101000001000000
10111101111101010001010001001001
00111101011101011111001001010100
00111110111000011011100000100010
00111110111000001001010101101101
00111111000110101000001100001101
00111110111011110000000010010011
00111111001101100000100011111001
00111111000101000011111011111111
10111100111010001101111011100001
10111101110101010101010010000001
10111110100110001010001100001100
10111111001111100111000011100011
10111110011010011110010110010110
10111111000111001100011001001001
00111110111011100001100011100111
10111110110101001101110000100001
00111111011001001001100111100010
00111101111011111100010010101001
10111110111110111100001111001110
00111100001110011100001011011100
10111110100100000111101101001000
10111111000000011101001111011111
10111101110000011000101100001011
00111111010111011111011011001010
00111110001101101001010011100101
00111111000010110011000010001010
10111110100110000001100010101010
00111110100010101100011101111101
10111100001000001001101110001011
10111010000111010111001001100100
00111111000001100001101100101000
00111110000000111111001010100001
00111111000001100000001100011010
00111111001010011110000010100000
00111111010010110001111000100000
00111101010010010001100101010111
10111101111000010000001000110011
10111101110011000011110100001101
10111110001111100001011000011101
00111110001001101001011110101010
10111110111010101011100001010010
10111101111010000101000100101000
00111110001110111001111000000110
10111110100111010110110011001101
00111110000011001000110011100100
00111100001001110100101110110111
00111111000110010100011000001001
00111110101110001011000110010001
00111111000100100100001000001100
00111111000001000100001000011010
00111110111011000011001011010001
10111110010000111011101010010111
00111110111010011010101110101010
00111111001000100111111010110100
00111101001010110000011100000100
00111110111110100000100010110010
00111110111100100101010000001010
10111110000101111111011100010111
00111110100000111110100011110111
00111101100010011010111110000000
10111110111010100010101110011111
10111110110001111111110101111000
00111110111001011001100010010111
00111110100000111101110000111111
00111110110000111110010100111110
00111110010000110000110110001100
00111110001010111111010000110000
00111111001101100100110010111100
00111111001010011011011101111010
00111110001011000011001110010000
00111110100000110100101100001101
00111111000010001111100000100111
00111100111010001011100100011100
10111110010111000111010010111100
10111110000101111111110010110110
00111110111011001011000000011010
10111110011000100111101000000110
10111110111110010001110101101011
10111111000001001010001101101111
10111111000100110010101011101010
00111110110111001100111101111001
00111110111010110001111010000111
00111110011001001001011101111011
00111110101000010011000111111000
00111111000111110111011010110101
00111110000011111000111010110111
00111101111101110111111001111001
00111111000011100111110000010110
00111100000101110111000011000011
10111110000101010110000011000100
10111110100010111111011001110101
00111110100001010010000001110111
00111111000111011011011101011100
00111111001001110001000001101111
00111110100100100001000001000111
00111110000011101011010011001000
10111110100110111101110100101111
10111110010101010011010010110110
00111111001100011011011011110010
10111100011010011010011010111110
10111101000000111111011100011000
00111101111000011110010011110101
10111111000101000101010111010100
10111110111010111011101010101111
10111111010011111000111000111111
10111110110011010111110011000101
10111111011000000001000001011110
10111111000000001110101001011110
10111110001111001110111011101010
10111110110010110001110100111110
00111110011001011010101010011101
00111110101011010000100000100100
10111110110011010101011011111110
00111110111001111001110111011011
00111110110000100101100111010010
00111111000001000111011111111101
00111110011000110110001001111011
10111110111011011011011000011000
10111111000110001001110100001111
10111101001011101010010001101111
10111110101010000111110001100000
00111101101111100101110010110110
00111110001000001101000111010011
00111110000100000011011111101100
00111110101010100011100000010111
00111111000110000011011000001010
00111110110100000011110101000000
00111110111010101010110110010001
00111110100000101101101100110101
10111110011101000000111111000011
00111101000001110001000010001001
10111101100001111001011111100000
10111110101001000000010110011001
00111110000001000111000101011111
00111101010011111110111011010100
00111100101010111011001010101110
00111101110111111100010100010111
00111111001110001100000100001001
00111111000000000011000101100001
00111110111111111011011101110010
10111101000101010100111101111110
00111011001001110010011101100100
10111111000010100111000001011110
00111111000110001000011101100010
00111111010101010011001000001110
00111100011110000101101011010011
00111100110101011000010111010111
10111110001101010001010010100101
10111110110100000010101000101110
00111110110000011011110000001001
00111111000001000001001000111101
10111101011101011001001011010101
10111101110101101000100001001001
10111110001101111011111001010110
10111101110101111001111000111111
10111110110001011010001001101101
10111110101101101010101111010101
10111111011011011001001100011101
10111110101101100101000111011111
10111101001010100100101111100011
10111101111100100001100000000001
10111111000000000011001011101101
10111110110000011100000000100010
10111110100001111111000001100111
00111110101100011110000100011101
00111111001010111011010011001001
00111110100110110100010110110110
00111111000100011101000110010000
00111110010100000000110000100010
00111111000111111000010111100100
10111110010100110010010110111011
00111110111001010111111011011010
00111110111011010000011111001100
00111101010101110000010101110111
10111110010011010101000010011100
10111100111100101111101101111010
10111011101011111100100001111010
00111101001001011100110111110001
00111101100001110110101011011110
10111111000101011010111010010001
10111110101111101101100100111000
10111110111011010100011110011101
10111110001111011001000011100000
10111110010100110001000111101000
10111111001011001100001101110001
00111110110110101001010000001100
00111110001110001011100110000000
00111111001000001011001100111101
10111110100111100011010101111101
10111110111000110001011000110101
00111101111011001001110110110010
00111110110100100110110000101001
00111110001100010111111110001011
00111110111100000011011000100100
10111111001011000101011111110110
10111110011010110000010010000110
10111111011011010011101011100111
00111110000110010111010010011011
00111110000101101011010100110001
10111110001110000001100101101111
00111110100001101101100001101110
00111111000000110111111010000111
00111110011111000000100001101010
00111110101101111001111010100010
00111111000001001100001000111110
00111111000110100010011111001010
10111111001110111100111111010100
10111110010010011101000011000100
10111111001001001011100110100101
10111101010100110010100011101110
00111110101100110001110000110111
10111101010000110111001010001010
10111110111101111010010001101111
00111110101010010110101001010010
10111110110110010000010010100000
10111110000010010110010011001010
00111100111100100011000000011110
10111110110000010000011000001000
00111100100010001101011100101110
00111111000011101111111000010001
00111110110000100111000001111011
10111110101100101100010000100000
10111111001100110101111000001011
10111101111111010110010001001111
10111110000101011100101011011010
00111110010011101100001011110101
10111110000001010100100100111110
10111111000010010000001110110011
10111101101000000010110100010001
10111110111010110000001110111010
00111111000001101101111000101110
00111110011001111100011110100010
10111101100011000010111111000001
00111110111100001111110001001111
00111111001111001101100001100101
00111110111010110001000111111001
00111110101001001101101100011110
00111110000110111010000100110010
10111110111101000000011010000011
10111111010110111111101001000010
10111110010111110001111110010011
10111111001110000111111110001000
00111011111001101110010010111000
00111110010110101010011000110100
00111101011100111110110110001011
10111101100101111111001011010110
10111101011011010011010011001011
10111101101110100000101011101111
10111101000010010001010101010010
00111011110100101101101100011001
00111101001110010111100011001010
00111101101011000010001011000100
00111111011000011001101000011100
00111110110111001101001100000000
00111101111010011001100001111100
00111110100001100111101111011110
00111101010110001010101101111101
00111111001101001101010010101001
00111111000010000100011101000000
00111110100100110010100100110110
00111110111110001010001000010101
00111110110101000011111010000101
00111110111100000011111000101110
00111110010110001101011111110011
10111110010100010111001011010000
10111101010100011001101010001011
10111101110100010011001010100011
00111111001000100000111011100101
00111110111011110011110000001110
10111110100100000100100110111101
10111101101010101100111101110111
00111101001000110100111010100000
00111001011001000011101010001001
10111111010011010011100000110110
10111110101110101011010011000111